[PAD]
[unused1]
[unused2]
[unused3]
[unused4]
[unused5]
[unused6]
[unused7]
[unused8]
[unused9]
[unused10]
[unused11]
[unused12]
[unused13]
[unused14]
[unused15]
[unused16]
[unused17]
[unused18]
[unused19]
[unused20]
[unused21]
[unused22]
[unused23]
[unused24]
[unused25]
[unused26]
[unused27]
[unused28]
[unused29]
[unused30]
[unused31]
[unused32]
[unused33]
[unused34]
[unused35]
[unused36]
[unused37]
[unused38]
[unused39]
[unused40]
[unused41]
[unused42]
[unused43]
[unused44]
[unused45]
[unused46]
[unused47]
[unused48]
[unused49]
[unused50]
[unused51]
[unused52]
[unused53]
[unused54]
[unused55]
[unused56]
[unused57]
[unused58]
[unused59]
[unused60]
[unused61]
[unused62]
[unused63]
[unused64]
[unused65]
[unused66]
[unused67]
[unused68]
[unused69]
[unused70]
[unused71]
[unused72]
[unused73]
[unused74]
[unused75]
[unused76]
[unused77]
[unused78]
[unused79]
[unused80]
[unused81]
[unused82]
[unused83]
[unused84]
[unused85]
[unused86]
[unused87]
[unused88]
[unused89]
[unused90]
[unused91]
[unused92]
[unused93]
[unused94]
[unused95]
[unused96]
[unused97]
[unused98]
[unused99]
[UNK]
[CLS]
[SEP]
[MASK]
<S>
<T>
!
"
#
$
%
&
'
(
)
*
+
,
-
.
/
0
1
2
3
4
5
6
7
8
9
:
;
<
=
>
?
@
[
\
]
^
_
a
b
c
d
e
f
g
h
i
j
k
l
m
n
o
p
q
r
s
t
u
v
w
x
y
z
{
|
}
~
£
¤
¥
§
©
«
®
°
±
²
³
µ
·
¹
º
»
¼
×
ß
æ
÷
ø
đ
ŋ
ɔ
ə
ɡ
ʰ
ˇ
ˈ
ˊ
ˋ
ˍ
ː
˙
˚
ˢ
α
β
γ
δ
ε
η
θ
ι
κ
λ
μ
ν
ο
π
ρ
ς
σ
τ
υ
φ
χ
ψ
ω
а
б
в
г
д
е
ж
з
и
к
л
м
н
о
п
р
с
т
у
ф
х
ц
ч
ш
ы
ь
я
і
ا
ب
ة
ت
د
ر
س
ع
ل
م
ن
ه
و
ي
۩
ก
ง
น
ม
ย
ร
อ
า
เ
๑
་
ღ
ᄀ
ᄁ
ᄂ
ᄃ
ᄅ
ᄆ
ᄇ
ᄈ
ᄉ
ᄋ
ᄌ
ᄎ
ᄏ
ᄐ
ᄑ
ᄒ
ᅡ
ᅢ
ᅣ
ᅥ
ᅦ
ᅧ
ᅨ
ᅩ
ᅪ
ᅬ
ᅭ
ᅮ
ᅯ
ᅲ
ᅳ
ᅴ
ᅵ
ᆨ
ᆫ
ᆯ
ᆷ
ᆸ
ᆺ
ᆻ
ᆼ
ᗜ
ᵃ
ᵉ
ᵍ
ᵏ
ᵐ
ᵒ
ᵘ
‖
„
†
•
‥
‧
 
‰
′
″
‹
›
※
‿
⁄
ⁱ
⁺
ⁿ
₁
₂
₃
₄
€
℃
№
™
ⅰ
ⅱ
ⅲ
ⅳ
ⅴ
←
↑
→
↓
↔
↗
↘
⇒
∀
−
∕
∙
√
∞
∟
∠
∣
∥
∩
∮
∶
∼
∽
≈
≒
≡
≤
≥
≦
≧
≪
≫
⊙
⋅
⋈
⋯
⌒
①
②
③
④
⑤
⑥
⑦
⑧
⑨
⑩
⑴
⑵
⑶
⑷
⑸
⒈
⒉
⒊
⒋
ⓒ
ⓔ
ⓘ
─
━
│
┃
┅
┆
┊
┌
└
├
┣
═
║
╚
╞
╠
╭
╮
╯
╰
╱
╳
▂
▃
▅
▇
█
▉
▋
▌
▍
▎
■
□
▪
▫
▬
▲
△
▶
►
▼
▽
◆
◇
○
◎
●
◕
◠
◢
◤
☀
★
☆
☕
☞
☺
☼
♀
♂
♠
♡
♣
♥
♦
♪
♫
♬
✈
✔
✕
✖
✦
✨
✪
✰
✿
❀
❤
➜
➤
⦿
、
。
〃
々
〇
〈
〉
《
》
「
」
『
』
【
】
〓
〔
〕
〖
〗
〜
〝
〞
ぁ
あ
ぃ
い
う
ぇ
え
お
か
き
く
け
こ
さ
し
す
せ
そ
た
ち
っ
つ
て
と
な
に
ぬ
ね
の
は
ひ
ふ
へ
ほ
ま
み
む
め
も
ゃ
や
ゅ
ゆ
ょ
よ
ら
り
る
れ
ろ
わ
を
ん
゜
ゝ
ァ
ア
ィ
イ
ゥ
ウ
ェ
エ
ォ
オ
カ
キ
ク
ケ
コ
サ
シ
ス
セ
ソ
タ
チ
ッ
ツ
テ
ト
ナ
ニ
ヌ
ネ
ノ
ハ
ヒ
フ
ヘ
ホ
マ
ミ
ム
メ
モ
ャ
ヤ
ュ
ユ
ョ
ヨ
ラ
リ
ル
レ
ロ
ワ
ヲ
ン
ヶ
・
ー
ヽ
ㄅ
ㄆ
ㄇ
ㄉ
ㄋ
ㄌ
ㄍ
ㄎ
ㄏ
ㄒ
ㄚ
ㄛ
ㄞ
ㄟ
ㄢ
ㄤ
ㄥ
ㄧ
ㄨ
ㆍ
㈦
㊣
㎡
㗎
一
丁
七
万
丈
三
上
下
不
与
丐
丑
专
且
丕
世
丘
丙
业
丛
东
丝
丞
丟
両
丢
两
严
並
丧
丨
个
丫
中
丰
串
临
丶
丸
丹
为
主
丼
丽
举
丿
乂
乃
久
么
义
之
乌
乍
乎
乏
乐
乒
乓
乔
乖
乗
乘
乙
乜
九
乞
也
习
乡
书
乩
买
乱
乳
乾
亀
亂
了
予
争
事
二
于
亏
云
互
五
井
亘
亙
亚
些
亜
亞
亟
亡
亢
交
亥
亦
产
亨
亩
享
京
亭
亮
亲
亳
亵
人
亿
什
仁
仃
仄
仅
仆
仇
今
介
仍
从
仏
仑
仓
仔
仕
他
仗
付
仙
仝
仞
仟
代
令
以
仨
仪
们
仮
仰
仲
件
价
任
份
仿
企
伉
伊
伍
伎
伏
伐
休
伕
众
优
伙
会
伝
伞
伟
传
伢
伤
伦
伪
伫
伯
估
伴
伶
伸
伺
似
伽
佃
但
佇
佈
位
低
住
佐
佑
体
佔
何
佗
佘
余
佚
佛
作
佝
佞
佟
你
佢
佣
佤
佥
佩
佬
佯
佰
佳
併
佶
佻
佼
使
侃
侄
來
侈
例
侍
侏
侑
侖
侗
供
依
侠
価
侣
侥
侦
侧
侨
侬
侮
侯
侵
侶
侷
便
係
促
俄
俊
俎
俏
俐
俑
俗
俘
俚
保
俞
俟
俠
信
俨
俩
俪
俬
俭
修
俯
俱
俳
俸
俺
俾
倆
倉
個
倌
倍
倏
們
倒
倔
倖
倘
候
倚
倜
借
倡
値
倦
倩
倪
倫
倬
倭
倶
债
值
倾
偃
假
偈
偉
偌
偎
偏
偕
做
停
健
側
偵
偶
偷
偻
偽
偿
傀
傅
傍
傑
傘
備
傚
傢
傣
傥
储
傩
催
傭
傲
傳
債
傷
傻
傾
僅
働
像
僑
僕
僖
僚
僥
僧
僭
僮
僱
僵
價
僻
儀
儂
億
儆
儉
儋
儒
儕
儘
償
儡
優
儲
儷
儼
儿
兀
允
元
兄
充
兆
兇
先
光
克
兌
免
児
兑
兒
兔
兖
党
兜
兢
入
內
全
兩
八
公
六
兮
兰
共
兲
关
兴
兵
其
具
典
兹
养
兼
兽
冀
内
円
冇
冈
冉
冊
册
再
冏
冒
冕
冗
写
军
农
冠
冢
冤
冥
冨
冪
冬
冯
冰
冲
决
况
冶
冷
冻
冼
冽
冾
净
凄
准
凇
凈
凉
凋
凌
凍
减
凑
凛
凜
凝
几
凡
凤
処
凪
凭
凯
凰
凱
凳
凶
凸
凹
出
击
函
凿
刀
刁
刃
分
切
刈
刊
刍
刎
刑
划
列
刘
则
刚
创
初
删
判
別
刨
利
刪
别
刮
到
制
刷
券
刹
刺
刻
刽
剁
剂
剃
則
剉
削
剋
剌
前
剎
剐
剑
剔
剖
剛
剜
剝
剣
剤
剥
剧
剩
剪
副
割
創
剷
剽
剿
劃
劇
劈
劉
劊
劍
劏
劑
力
劝
办
功
加
务
劣
动
助
努
劫
劭
励
劲
劳
労
劵
効
劾
势
勁
勃
勇
勉
勋
勐
勒
動
勖
勘
務
勛
勝
勞
募
勢
勤
勧
勳
勵
勸
勺
勻
勾
勿
匀
包
匆
匈
匍
匐
匕
化
北
匙
匝
匠
匡
匣
匪
匮
匯
匱
匹
区
医
匾
匿
區
十
千
卅
升
午
卉
半
卍
华
协
卑
卒
卓
協
单
卖
南
単
博
卜
卞
卟
占
卡
卢
卤
卦
卧
卫
卮
卯
印
危
即
却
卵
卷
卸
卻
卿
厂
厄
厅
历
厉
压
厌
厕
厘
厚
厝
原
厢
厥
厦
厨
厩
厭
厮
厲
厳
去
县
叁
参
參
又
叉
及
友
双
反
収
发
叔
取
受
变
叙
叛
叟
叠
叡
叢
口
古
句
另
叨
叩
只
叫
召
叭
叮
可
台
叱
史
右
叵
叶
号
司
叹
叻
叼
叽
吁
吃
各
吆
合
吉
吊
吋
同
名
后
吏
吐
向
吒
吓
吕
吖
吗
君
吝
吞
吟
吠
吡
否
吧
吨
吩
含
听
吭
吮
启
吱
吳
吴
吵
吶
吸
吹
吻
吼
吽
吾
呀
呂
呃
呆
呈
告
呋
呎
呐
呓
呕
呗
员
呛
呜
呢
呤
呦
周
呱
呲
味
呵
呷
呸
呻
呼
命
咀
咁
咂
咄
咆
咋
和
咎
咏
咐
咒
咔
咕
咖
咗
咘
咙
咚
咛
咣
咤
咦
咧
咨
咩
咪
咫
咬
咭
咯
咱
咲
咳
咸
咻
咽
咿
哀
品
哂
哄
哆
哇
哈
哉
哋
哌
响
哎
哏
哐
哑
哒
哔
哗
哟
員
哥
哦
哧
哨
哩
哪
哭
哮
哲
哺
哼
哽
唁
唄
唆
唇
唉
唏
唐
唑
唔
唠
唤
唧
唬
售
唯
唰
唱
唳
唷
唸
唾
啃
啄
商
啉
啊
問
啓
啕
啖
啜
啞
啟
啡
啤
啥
啦
啧
啪
啫
啬
啮
啰
啱
啲
啵
啶
啷
啸
啻
啼
啾
喀
喂
喃
善
喆
喇
喉
喊
喋
喎
喏
喔
喘
喙
喚
喜
喝
喟
喧
喪
喫
喬
單
喰
喱
喲
喳
喵
営
喷
喹
喺
喻
喽
嗅
嗆
嗇
嗎
嗑
嗒
嗓
嗔
嗖
嗚
嗜
嗝
嗟
嗡
嗣
嗤
嗦
嗨
嗪
嗬
嗯
嗰
嗲
嗳
嗶
嗷
嗽
嘀
嘅
嘆
嘈
嘉
嘌
嘍
嘎
嘔
嘖
嘗
嘘
嘚
嘛
嘜
嘞
嘟
嘢
嘣
嘤
嘧
嘩
嘭
嘮
嘯
嘰
嘱
嘲
嘴
嘶
嘸
嘹
嘻
嘿
噁
噌
噎
噓
噔
噗
噙
噜
噠
噢
噤
器
噩
噪
噬
噱
噴
噶
噸
噹
噻
噼
嚀
嚇
嚎
嚏
嚐
嚓
嚕
嚟
嚣
嚥
嚨
嚮
嚴
嚷
嚼
囂
囉
囊
囍
囑
囔
囗
囚
四
囝
回
囟
因
囡
团
団
囤
囧
囪
囫
园
困
囱
囲
図
围
囹
固
国
图
囿
圃
圄
圆
圈
國
圍
圏
園
圓
圖
團
圜
土
圣
圧
在
圩
圭
地
圳
场
圻
圾
址
坂
均
坊
坍
坎
坏
坐
坑
块
坚
坛
坝
坞
坟
坠
坡
坤
坦
坨
坪
坯
坳
坵
坷
垂
垃
垄
型
垒
垚
垛
垠
垢
垣
垦
垩
垫
垭
垮
垵
埂
埃
埋
城
埔
埕
埗
域
埠
埤
埵
執
埸
培
基
埼
堀
堂
堃
堅
堆
堇
堑
堕
堙
堡
堤
堪
堯
堰
報
場
堵
堺
堿
塊
塌
塑
塔
塗
塘
塚
塞
塢
塩
填
塬
塭
塵
塾
墀
境
墅
墉
墊
墒
墓
増
墘
墙
墜
增
墟
墨
墩
墮
墳
墻
墾
壁
壅
壆
壇
壊
壑
壓
壕
壘
壞
壟
壢
壤
壩
士
壬
壮
壯
声
売
壳
壶
壹
壺
壽
处
备
変
复
夏
夔
夕
外
夙
多
夜
够
夠
夢
夥
大
天
太
夫
夭
央
夯
失
头
夷
夸
夹
夺
夾
奂
奄
奇
奈
奉
奋
奎
奏
奐
契
奔
奕
奖
套
奘
奚
奠
奢
奥
奧
奪
奬
奮
女
奴
奶
奸
她
好
如
妃
妄
妆
妇
妈
妊
妍
妒
妓
妖
妘
妙
妝
妞
妣
妤
妥
妨
妩
妪
妮
妲
妳
妹
妻
妾
姆
姉
姊
始
姍
姐
姑
姒
姓
委
姗
姚
姜
姝
姣
姥
姦
姨
姪
姫
姬
姹
姻
姿
威
娃
娄
娅
娆
娇
娉
娑
娓
娘
娛
娜
娟
娠
娣
娥
娩
娱
娲
娴
娶
娼
婀
婁
婆
婉
婊
婕
婚
婢
婦
婧
婪
婭
婴
婵
婶
婷
婺
婿
媒
媚
媛
媞
媧
媲
媳
媽
媾
嫁
嫂
嫉
嫌
嫑
嫔
嫖
嫘
嫚
嫡
嫣
嫦
嫩
嫲
嫵
嫻
嬅
嬉
嬌
嬗
嬛
嬢
嬤
嬪
嬰
嬴
嬷
嬸
嬿
孀
孃
子
孑
孔
孕
孖
字
存
孙
孚
孛
孜
孝
孟
孢
季
孤
学
孩
孪
孫
孬
孰
孱
孳
孵
學
孺
孽
孿
宁
它
宅
宇
守
安
宋
完
宏
宓
宕
宗
官
宙
定
宛
宜
宝
实
実
宠
审
客
宣
室
宥
宦
宪
宫
宮
宰
害
宴
宵
家
宸
容
宽
宾
宿
寂
寄
寅
密
寇
富
寐
寒
寓
寛
寝
寞
察
寡
寢
寥
實
寧
寨
審
寫
寬
寮
寰
寵
寶
寸
对
寺
寻
导
対
寿
封
専
射
将
將
專
尉
尊
尋
對
導
小
少
尔
尕
尖
尘
尚
尝
尤
尧
尬
就
尴
尷
尸
尹
尺
尻
尼
尽
尾
尿
局
屁
层
屄
居
屆
屈
屉
届
屋
屌
屍
屎
屏
屐
屑
展
屜
属
屠
屡
屢
層
履
屬
屯
山
屹
屿
岀
岁
岂
岌
岐
岑
岔
岖
岗
岘
岙
岚
岛
岡
岩
岫
岬
岭
岱
岳
岷
岸
峇
峋
峒
峙
峡
峤
峥
峦
峨
峪
峭
峯
峰
峴
島
峻
峽
崁
崂
崆
崇
崎
崑
崔
崖
崗
崙
崛
崧
崩
崭
崴
崽
嵇
嵊
嵋
嵌
嵐
嵘
嵩
嵬
嵯
嶂
嶄
嶇
嶋
嶙
嶺
嶼
嶽
巅
巍
巒
巔
巖
川
州
巡
巢
工
左
巧
巨
巩
巫
差
己
已
巳
巴
巷
巻
巽
巾
巿
币
市
布
帅
帆
师
希
帐
帑
帕
帖
帘
帚
帛
帜
帝
帥
带
帧
師
席
帮
帯
帰
帳
帶
帷
常
帼
帽
幀
幂
幄
幅
幌
幔
幕
幟
幡
幢
幣
幫
干
平
年
并
幸
幹
幺
幻
幼
幽
幾
广
庁
広
庄
庆
庇
床
序
庐
库
应
底
庖
店
庙
庚
府
庞
废
庠
度
座
庫
庭
庵
庶
康
庸
庹
庾
廁
廂
廃
廈
廉
廊
廓
廖
廚
廝
廟
廠
廢
廣
廬
廳
延
廷
建
廿
开
弁
异
弃
弄
弈
弊
弋
式
弑
弒
弓
弔
引
弗
弘
弛
弟
张
弥
弦
弧
弩
弭
弯
弱
張
強
弹
强
弼
弾
彅
彆
彈
彌
彎
归
当
录
彗
彙
彝
形
彤
彥
彦
彧
彩
彪
彫
彬
彭
彰
影
彷
役
彻
彼
彿
往
征
径
待
徇
很
徉
徊
律
後
徐
徑
徒
従
徕
得
徘
徙
徜
從
徠
御
徨
復
循
徬
微
徳
徴
徵
德
徹
徼
徽
心
必
忆
忌
忍
忏
忐
忑
忒
忖
志
忘
忙
応
忠
忡
忤
忧
忪
快
忱
念
忻
忽
忿
怀
态
怂
怅
怆
怎
怏
怒
怔
怕
怖
怙
怜
思
怠
怡
急
怦
性
怨
怪
怯
怵
总
怼
恁
恃
恆
恋
恍
恐
恒
恕
恙
恚
恢
恣
恤
恥
恨
恩
恪
恫
恬
恭
息
恰
恳
恵
恶
恸
恺
恻
恼
恿
悄
悅
悉
悌
悍
悔
悖
悚
悟
悠
患
悦
您
悩
悪
悬
悯
悱
悲
悴
悵
悶
悸
悻
悼
悽
情
惆
惇
惊
惋
惑
惕
惘
惚
惜
惟
惠
惡
惦
惧
惨
惩
惫
惬
惭
惮
惯
惰
惱
想
惴
惶
惹
惺
愁
愆
愈
愉
愍
意
愕
愚
愛
愜
感
愣
愤
愧
愫
愷
愿
慄
慈
態
慌
慎
慑
慕
慘
慚
慟
慢
慣
慧
慨
慫
慮
慰
慳
慵
慶
慷
慾
憂
憊
憋
憎
憐
憑
憔
憚
憤
憧
憨
憩
憫
憬
憲
憶
憾
懂
懇
懈
應
懊
懋
懑
懒
懦
懲
懵
懶
懷
懸
懺
懼
懾
懿
戀
戈
戊
戌
戍
戎
戏
成
我
戒
戕
或
战
戚
戛
戟
戡
戦
截
戬
戮
戰
戲
戳
戴
戶
户
戸
戻
戾
房
所
扁
扇
扈
扉
手
才
扎
扑
扒
打
扔
払
托
扛
扣
扦
执
扩
扪
扫
扬
扭
扮
扯
扰
扱
扳
扶
批
扼
找
承
技
抄
抉
把
抑
抒
抓
投
抖
抗
折
抚
抛
抜
択
抟
抠
抡
抢
护
报
抨
披
抬
抱
抵
抹
押
抽
抿
拂
拄
担
拆
拇
拈
拉
拋
拌
拍
拎
拐
拒
拓
拔
拖
拗
拘
拙
拚
招
拜
拟
拡
拢
拣
拥
拦
拧
拨
择
括
拭
拮
拯
拱
拳
拴
拷
拼
拽
拾
拿
持
挂
指
挈
按
挎
挑
挖
挙
挚
挛
挝
挞
挟
挠
挡
挣
挤
挥
挨
挪
挫
振
挲
挹
挺
挽
挾
捂
捅
捆
捉
捋
捌
捍
捎
捏
捐
捕
捞
损
捡
换
捣
捧
捨
捩
据
捱
捲
捶
捷
捺
捻
掀
掂
掃
掇
授
掉
掌
掏
掐
排
掖
掘
掙
掛
掠
採
探
掣
接
控
推
掩
措
掬
掰
掲
掳
掴
掷
掸
掺
揀
揃
揄
揆
揉
揍
描
提
插
揖
揚
換
握
揣
揩
揪
揭
揮
援
揶
揸
揹
揽
搀
搁
搂
搅
損
搏
搐
搓
搔
搖
搗
搜
搞
搡
搪
搬
搭
搵
搶
携
搽
摀
摁
摄
摆
摇
摈
摊
摒
摔
摘
摞
摟
摧
摩
摯
摳
摸
摹
摺
摻
撂
撃
撅
撇
撈
撐
撑
撒
撓
撕
撚
撞
撤
撥
撩
撫
撬
播
撮
撰
撲
撵
撷
撸
撻
撼
撿
擀
擁
擂
擄
擅
擇
擊
擋
操
擎
擒
擔
擘
據
擞
擠
擡
擢
擦
擬
擰
擱
擲
擴
擷
擺
擼
擾
攀
攏
攒
攔
攘
攙
攜
攝
攞
攢
攣
攤
攥
攪
攫
攬
支
收
攸
改
攻
放
政
故
效
敌
敍
敎
敏
救
敕
敖
敗
敘
教
敛
敝
敞
敢
散
敦
敬
数
敲
整
敵
敷
數
斂
斃
文
斋
斌
斎
斐
斑
斓
斗
料
斛
斜
斟
斡
斤
斥
斧
斩
斫
斬
断
斯
新
斷
方
於
施
旁
旃
旅
旋
旌
旎
族
旖
旗
无
既
日
旦
旧
旨
早
旬
旭
旮
旱
时
旷
旺
旻
昀
昂
昆
昇
昉
昊
昌
明
昏
易
昔
昕
昙
星
映
春
昧
昨
昭
是
昱
昴
昵
昶
昼
显
晁
時
晃
晉
晋
晌
晏
晒
晓
晔
晕
晖
晗
晚
晝
晞
晟
晤
晦
晨
晩
普
景
晰
晴
晶
晷
智
晾
暂
暄
暇
暈
暉
暌
暐
暑
暖
暗
暝
暢
暧
暨
暫
暮
暱
暴
暸
暹
曄
曆
曇
曉
曖
曙
曜
曝
曠
曦
曬
曰
曲
曳
更
書
曹
曼
曾
替
最
會
月
有
朋
服
朐
朔
朕
朗
望
朝
期
朦
朧
木
未
末
本
札
朮
术
朱
朴
朵
机
朽
杀
杂
权
杆
杈
杉
李
杏
材
村
杓
杖
杜
杞
束
杠
条
来
杨
杭
杯
杰
東
杳
杵
杷
杼
松
板
极
构
枇
枉
枋
析
枕
林
枚
果
枝
枢
枣
枪
枫
枭
枯
枰
枱
枳
架
枷
枸
柄
柏
某
柑
柒
染
柔
柘
柚
柜
柞
柠
柢
查
柩
柬
柯
柱
柳
柴
柵
査
柿
栀
栃
栄
栅
标
栈
栉
栋
栎
栏
树
栓
栖
栗
校
栩
株
样
核
根
格
栽
栾
桀
桁
桂
桃
桅
框
案
桉
桌
桎
桐
桑
桓
桔
桜
桠
桡
桢
档
桥
桦
桧
桨
桩
桶
桿
梁
梅
梆
梏
梓
梗
條
梟
梢
梦
梧
梨
梭
梯
械
梳
梵
梶
检
棂
棄
棉
棋
棍
棒
棕
棗
棘
棚
棟
棠
棣
棧
森
棱
棲
棵
棹
棺
椁
椅
椋
植
椎
椒
検
椪
椭
椰
椹
椽
椿
楂
楊
楓
楔
楚
楝
楞
楠
楣
楨
楫
業
楮
極
楷
楸
楹
楼
楽
概
榄
榆
榈
榉
榔
榕
榖
榛
榜
榨
榫
榭
榮
榱
榴
榷
榻
槁
槃
構
槌
槍
槎
槐
槓
様
槛
槟
槤
槭
槲
槳
槻
槽
槿
樁
樂
樊
樑
樓
標
樞
樟
模
樣
権
横
樫
樯
樱
樵
樸
樹
樺
樽
樾
橄
橇
橋
橐
橘
橙
機
橡
橢
橫
橱
橹
橼
檀
檄
檎
檐
檔
檗
檜
檢
檬
檯
檳
檸
檻
櫃
櫚
櫛
櫥
櫸
櫻
欄
權
欒
欖
欠
次
欢
欣
欧
欲
欸
欺
欽
款
歆
歇
歉
歌
歎
歐
歓
歙
歛
歡
止
正
此
步
武
歧
歩
歪
歯
歲
歳
歴
歷
歸
歹
死
歼
殁
殃
殆
殇
殉
殊
残
殒
殓
殖
殘
殞
殡
殤
殭
殯
殲
殴
段
殷
殺
殼
殿
毀
毁
毂
毅
毆
毋
母
毎
每
毒
毓
比
毕
毗
毘
毙
毛
毡
毫
毯
毽
氈
氏
氐
民
氓
气
氖
気
氙
氛
氟
氡
氢
氣
氤
氦
氧
氨
氪
氫
氮
氯
氰
氲
水
氷
永
氹
氾
汀
汁
求
汆
汇
汉
汎
汐
汕
汗
汙
汛
汝
汞
江
池
污
汤
汨
汩
汪
汰
汲
汴
汶
汹
決
汽
汾
沁
沂
沃
沅
沈
沉
沌
沏
沐
沒
沓
沖
沙
沛
沟
没
沢
沣
沥
沦
沧
沪
沫
沭
沮
沱
河
沸
油
治
沼
沽
沾
沿
況
泄
泉
泊
泌
泓
法
泗
泛
泞
泠
泡
波
泣
泥
注
泪
泫
泮
泯
泰
泱
泳
泵
泷
泸
泻
泼
泽
泾
洁
洄
洋
洒
洗
洙
洛
洞
津
洩
洪
洮
洱
洲
洵
洶
洸
洹
活
洼
洽
派
流
浃
浄
浅
浆
浇
浊
测
济
浏
浑
浒
浓
浔
浙
浚
浜
浣
浦
浩
浪
浬
浮
浯
浴
海
浸
涂
涅
涇
消
涉
涌
涎
涓
涔
涕
涙
涛
涝
涞
涟
涠
涡
涣
涤
润
涧
涨
涩
涪
涮
涯
液
涵
涸
涼
涿
淀
淄
淅
淆
淇
淋
淌
淑
淒
淖
淘
淙
淚
淞
淡
淤
淦
淨
淩
淪
淫
淬
淮
深
淳
淵
混
淹
淺
添
淼
清
済
渉
渊
渋
渍
渎
渐
渔
渗
渙
渚
減
渝
渠
渡
渣
渤
渥
渦
温
測
渭
港
渲
渴
游
渺
渾
湃
湄
湊
湍
湖
湘
湛
湟
湧
湫
湮
湯
湳
湾
湿
満
溃
溅
溉
溏
源
準
溜
溝
溟
溢
溥
溧
溪
溫
溯
溱
溴
溶
溺
溼
滁
滂
滄
滅
滇
滋
滌
滑
滓
滔
滕
滙
滚
滝
滞
滟
满
滢
滤
滥
滦
滨
滩
滬
滯
滲
滴
滷
滸
滾
滿
漁
漂
漆
漉
漏
漓
演
漕
漠
漢
漣
漩
漪
漫
漬
漯
漱
漲
漳
漸
漾
漿
潆
潇
潋
潍
潑
潔
潘
潛
潜
潞
潟
潢
潤
潦
潧
潭
潮
潰
潴
潸
潺
潼
澀
澄
澆
澈
澍
澎
澗
澜
澡
澤
澧
澱
澳
澹
激
濁
濂
濃
濑
濒
濕
濘
濛
濟
濠
濡
濤
濫
濬
濮
濯
濱
濺
濾
瀅
瀆
瀉
瀋
瀏
瀑
瀕
瀘
瀚
瀛
瀝
瀞
瀟
瀧
瀨
瀬
瀰
瀾
灌
灏
灑
灘
灝
灞
灣
火
灬
灭
灯
灰
灵
灶
灸
灼
災
灾
灿
炀
炁
炅
炉
炊
炎
炒
炔
炕
炖
炙
炜
炫
炬
炭
炮
炯
炳
炷
炸
点
為
炼
炽
烁
烂
烃
烈
烊
烏
烘
烙
烛
烟
烤
烦
烧
烨
烩
烫
烬
热
烯
烷
烹
烽
焉
焊
焕
焖
焗
焘
焙
焚
焜
無
焦
焯
焰
焱
然
焼
煅
煉
煊
煌
煎
煒
煖
煙
煜
煞
煤
煥
煦
照
煨
煩
煮
煲
煸
煽
熄
熊
熏
熒
熔
熙
熟
熠
熨
熬
熱
熵
熹
熾
燁
燃
燄
燈
燉
燊
燎
燒
燔
燕
燙
燜
營
燥
燦
燧
燭
燮
燴
燻
燼
燿
爆
爍
爐
爛
爪
爬
爭
爰
爱
爲
爵
父
爷
爸
爹
爺
爻
爽
爾
牆
片
版
牌
牍
牒
牙
牛
牝
牟
牠
牡
牢
牦
牧
物
牯
牲
牴
牵
特
牺
牽
犀
犁
犄
犊
犍
犒
犢
犧
犬
犯
状
犷
犸
犹
狀
狂
狄
狈
狎
狐
狒
狗
狙
狞
狠
狡
狩
独
狭
狮
狰
狱
狸
狹
狼
狽
猎
猕
猖
猗
猙
猛
猜
猝
猥
猩
猪
猫
猬
献
猴
猶
猷
猾
猿
獄
獅
獎
獐
獒
獗
獠
獣
獨
獭
獰
獲
獵
獷
獸
獺
獻
獼
獾
玄
率
玉
王
玑
玖
玛
玟
玠
玥
玩
玫
玮
环
现
玲
玳
玷
玺
玻
珀
珂
珅
珈
珉
珊
珍
珏
珐
珑
珙
珞
珠
珣
珥
珩
珪
班
珮
珲
珺
現
球
琅
理
琇
琉
琊
琍
琏
琐
琛
琢
琥
琦
琨
琪
琬
琮
琰
琲
琳
琴
琵
琶
琺
琼
瑀
瑁
瑄
瑋
瑕
瑗
瑙
瑚
瑛
瑜
瑞
瑟
瑠
瑣
瑤
瑩
瑪
瑯
瑰
瑶
瑾
璀
璁
璃
璇
璉
璋
璎
璐
璜
璞
璟
璧
璨
環
璽
璿
瓊
瓏
瓒
瓜
瓢
瓣
瓤
瓦
瓮
瓯
瓴
瓶
瓷
甄
甌
甕
甘
甙
甚
甜
生
產
産
甥
甦
用
甩
甫
甬
甭
甯
田
由
甲
申
电
男
甸
町
画
甾
畀
畅
界
畏
畑
畔
留
畜
畝
畢
略
畦
番
畫
異
畲
畳
畴
當
畸
畹
畿
疆
疇
疊
疏
疑
疔
疖
疗
疙
疚
疝
疟
疡
疣
疤
疥
疫
疮
疯
疱
疲
疳
疵
疸
疹
疼
疽
疾
痂
病
症
痈
痉
痊
痍
痒
痔
痕
痘
痙
痛
痞
痠
痢
痣
痤
痧
痨
痪
痫
痰
痱
痴
痹
痺
痼
痿
瘀
瘁
瘋
瘍
瘓
瘘
瘙
瘟
瘠
瘡
瘢
瘤
瘦
瘧
瘩
瘪
瘫
瘴
瘸
瘾
療
癇
癌
癒
癖
癜
癞
癡
癢
癣
癥
癫
癬
癮
癱
癲
癸
発
登
發
白
百
皂
的
皆
皇
皈
皋
皎
皑
皓
皖
皙
皚
皮
皰
皱
皴
皺
皿
盂
盃
盅
盆
盈
益
盎
盏
盐
监
盒
盔
盖
盗
盘
盛
盜
盞
盟
盡
監
盤
盥
盧
盪
目
盯
盱
盲
直
相
盹
盼
盾
省
眈
眉
看
県
眙
眞
真
眠
眦
眨
眩
眯
眶
眷
眸
眺
眼
眾
着
睁
睇
睏
睐
睑
睛
睜
睞
睡
睢
督
睥
睦
睨
睪
睫
睬
睹
睽
睾
睿
瞄
瞅
瞇
瞋
瞌
瞎
瞑
瞒
瞓
瞞
瞟
瞠
瞥
瞧
瞩
瞪
瞬
瞭
瞰
瞳
瞻
瞼
瞿
矇
矍
矗
矚
矛
矜
矢
矣
知
矩
矫
短
矮
矯
石
矶
矽
矾
矿
码
砂
砌
砍
砒
研
砖
砗
砚
砝
砣
砥
砧
砭
砰
砲
破
砷
砸
砺
砼
砾
础
硅
硐
硒
硕
硝
硫
硬
确
硯
硼
碁
碇
碉
碌
碍
碎
碑
碓
碗
碘
碚
碛
碟
碣
碧
碩
碰
碱
碳
碴
確
碼
碾
磁
磅
磊
磋
磐
磕
磚
磡
磨
磬
磯
磲
磷
磺
礁
礎
礙
礡
礦
礪
礫
礴
示
礼
社
祀
祁
祂
祇
祈
祉
祎
祐
祕
祖
祗
祚
祛
祜
祝
神
祟
祠
祢
祥
票
祭
祯
祷
祸
祺
祿
禀
禁
禄
禅
禍
禎
福
禛
禦
禧
禪
禮
禱
禹
禺
离
禽
禾
禿
秀
私
秃
秆
秉
秋
种
科
秒
秘
租
秣
秤
秦
秧
秩
秭
积
称
秸
移
秽
稀
稅
程
稍
税
稔
稗
稚
稜
稞
稟
稠
稣
種
稱
稲
稳
稷
稹
稻
稼
稽
稿
穀
穂
穆
穌
積
穎
穗
穢
穩
穫
穴
究
穷
穹
空
穿
突
窃
窄
窈
窍
窑
窒
窓
窕
窖
窗
窘
窜
窝
窟
窠
窥
窦
窨
窩
窪
窮
窯
窺
窿
竄
竅
竇
竊
立
竖
站
竜
竞
竟
章
竣
童
竭
端
競
竹
竺
竽
竿
笃
笆
笈
笋
笏
笑
笔
笙
笛
笞
笠
符
笨
第
笹
笺
笼
筆
等
筊
筋
筍
筏
筐
筑
筒
答
策
筛
筝
筠
筱
筲
筵
筷
筹
签
简
箇
箋
箍
箏
箐
箔
箕
算
箝
管
箩
箫
箭
箱
箴
箸
節
篁
範
篆
篇
築
篑
篓
篙
篝
篠
篡
篤
篩
篪
篮
篱
篷
簇
簌
簍
簡
簦
簧
簪
簫
簷
簸
簽
簾
簿
籁
籃
籌
籍
籐
籟
籠
籤
籬
籮
籲
米
类
籼
籽
粄
粉
粑
粒
粕
粗
粘
粟
粤
粥
粧
粪
粮
粱
粲
粳
粵
粹
粼
粽
精
粿
糅
糊
糍
糕
糖
糗
糙
糜
糞
糟
糠
糧
糬
糯
糰
糸
系
糾
紀
紂
約
紅
紉
紊
紋
納
紐
紓
純
紗
紘
紙
級
紛
紜
素
紡
索
紧
紫
紮
累
細
紳
紹
紺
終
絃
組
絆
経
結
絕
絞
絡
絢
給
絨
絮
統
絲
絳
絵
絶
絹
綁
綏
綑
經
継
続
綜
綠
綢
綦
綫
綬
維
綱
網
綴
綵
綸
綺
綻
綽
綾
綿
緊
緋
総
緑
緒
緘
線
緝
緞
締
緣
編
緩
緬
緯
練
緹
緻
縁
縄
縈
縛
縝
縣
縫
縮
縱
縴
縷
總
績
繁
繃
繆
繇
繋
織
繕
繚
繞
繡
繩
繪
繫
繭
繳
繹
繼
繽
纂
續
纍
纏
纓
纔
纖
纜
纠
红
纣
纤
约
级
纨
纪
纫
纬
纭
纯
纰
纱
纲
纳
纵
纶
纷
纸
纹
纺
纽
纾
线
绀
练
组
绅
细
织
终
绊
绍
绎
经
绑
绒
结
绔
绕
绘
给
绚
绛
络
绝
绞
统
绡
绢
绣
绥
绦
继
绩
绪
绫
续
绮
绯
绰
绳
维
绵
绶
绷
绸
绻
综
绽
绾
绿
缀
缄
缅
缆
缇
缈
缉
缎
缓
缔
缕
编
缘
缙
缚
缜
缝
缠
缢
缤
缥
缨
缩
缪
缭
缮
缰
缱
缴
缸
缺
缽
罂
罄
罌
罐
网
罔
罕
罗
罚
罡
罢
罩
罪
置
罰
署
罵
罷
罹
羁
羅
羈
羊
羌
美
羔
羚
羞
羟
羡
羣
群
羥
羧
羨
義
羯
羲
羸
羹
羽
羿
翁
翅
翊
翌
翎
習
翔
翘
翟
翠
翡
翦
翩
翰
翱
翳
翹
翻
翼
耀
老
考
耄
者
耆
耋
而
耍
耐
耒
耕
耗
耘
耙
耦
耨
耳
耶
耷
耸
耻
耽
耿
聂
聆
聊
聋
职
聒
联
聖
聘
聚
聞
聪
聯
聰
聲
聳
聴
聶
職
聽
聾
聿
肃
肄
肅
肆
肇
肉
肋
肌
肏
肓
肖
肘
肚
肛
肝
肠
股
肢
肤
肥
肩
肪
肮
肯
肱
育
肴
肺
肽
肾
肿
胀
胁
胃
胄
胆
背
胍
胎
胖
胚
胛
胜
胝
胞
胡
胤
胥
胧
胫
胭
胯
胰
胱
胳
胴
胶
胸
胺
能
脂
脅
脆
脇
脈
脉
脊
脍
脏
脐
脑
脓
脖
脘
脚
脛
脣
脩
脫
脯
脱
脲
脳
脸
脹
脾
腆
腈
腊
腋
腌
腎
腐
腑
腓
腔
腕
腥
腦
腩
腫
腭
腮
腰
腱
腳
腴
腸
腹
腺
腻
腼
腾
腿
膀
膈
膊
膏
膑
膘
膚
膛
膜
膝
膠
膦
膨
膩
膳
膺
膻
膽
膾
膿
臀
臂
臃
臆
臉
臊
臍
臓
臘
臟
臣
臥
臧
臨
自
臬
臭
至
致
臺
臻
臼
臾
舀
舂
舅
舆
與
興
舉
舊
舌
舍
舎
舐
舒
舔
舖
舗
舛
舜
舞
舟
航
舫
般
舰
舱
舵
舶
舷
舸
船
舺
舾
艇
艋
艘
艙
艦
艮
良
艰
艱
色
艳
艷
艹
艺
艾
节
芃
芈
芊
芋
芍
芎
芒
芙
芜
芝
芡
芥
芦
芩
芪
芫
芬
芭
芮
芯
花
芳
芷
芸
芹
芻
芽
芾
苁
苄
苇
苋
苍
苏
苑
苒
苓
苔
苕
苗
苛
苜
苞
苟
苡
苣
若
苦
苫
苯
英
苷
苹
苻
茁
茂
范
茄
茅
茉
茎
茏
茗
茜
茧
茨
茫
茬
茭
茯
茱
茲
茴
茵
茶
茸
茹
茼
荀
荃
荆
草
荊
荏
荐
荒
荔
荖
荘
荚
荞
荟
荠
荡
荣
荤
荥
荧
荨
荪
荫
药
荳
荷
荸
荻
荼
荽
莅
莆
莉
莊
莎
莒
莓
莖
莘
莞
莠
莢
莧
莪
莫
莱
莲
莴
获
莹
莺
莽
莿
菀
菁
菅
菇
菈
菊
菌
菏
菓
菖
菘
菜
菟
菠
菡
菩
華
菱
菲
菸
菽
萁
萃
萄
萊
萋
萌
萍
萎
萘
萝
萤
营
萦
萧
萨
萩
萬
萱
萵
萸
萼
落
葆
葉
著
葚
葛
葡
董
葦
葩
葫
葬
葭
葯
葱
葳
葵
葷
葺
蒂
蒋
蒐
蒔
蒙
蒜
蒞
蒟
蒡
蒨
蒲
蒸
蒹
蒻
蒼
蒿
蓁
蓄
蓆
蓉
蓋
蓑
蓓
蓖
蓝
蓟
蓦
蓬
蓮
蓼
蓿
蔑
蔓
蔔
蔗
蔘
蔚
蔡
蔣
蔥
蔫
蔬
蔭
蔵
蔷
蔺
蔻
蔼
蔽
蕁
蕃
蕈
蕉
蕊
蕎
蕙
蕤
蕨
蕩
蕪
蕭
蕲
蕴
蕻
蕾
薄
薅
薇
薈
薊
薏
薑
薔
薙
薛
薦
薨
薩
薪
薬
薯
薰
薹
藉
藍
藏
藐
藓
藕
藜
藝
藤
藥
藩
藹
藻
藿
蘆
蘇
蘊
蘋
蘑
蘚
蘭
蘸
蘼
蘿
虎
虏
虐
虑
虔
處
虚
虛
虜
虞
號
虢
虧
虫
虬
虱
虹
虻
虽
虾
蚀
蚁
蚂
蚊
蚌
蚓
蚕
蚜
蚝
蚣
蚤
蚩
蚪
蚯
蚱
蚵
蛀
蛆
蛇
蛊
蛋
蛎
蛐
蛔
蛙
蛛
蛟
蛤
蛭
蛮
蛰
蛳
蛹
蛻
蛾
蜀
蜂
蜃
蜆
蜇
蜈
蜊
蜍
蜒
蜓
蜕
蜗
蜘
蜚
蜜
蜡
蜢
蜥
蜱
蜴
蜷
蜻
蜿
蝇
蝈
蝉
蝌
蝎
蝕
蝗
蝙
蝟
蝠
蝦
蝨
蝴
蝶
蝸
蝼
螂
螃
融
螞
螢
螨
螯
螳
螺
蟀
蟄
蟆
蟋
蟎
蟑
蟒
蟠
蟬
蟲
蟹
蟻
蟾
蠅
蠍
蠔
蠕
蠛
蠟
蠡
蠢
蠣
蠱
蠶
蠹
蠻
血
衄
衅
衆
行
衍
術
衔
街
衙
衛
衝
衞
衡
衢
衣
补
表
衩
衫
衬
衮
衰
衲
衷
衹
衾
衿
袁
袂
袄
袅
袈
袋
袍
袒
袖
袜
袞
袤
袪
被
袭
袱
裁
裂
装
裆
裊
裏
裔
裕
裘
裙
補
裝
裟
裡
裤
裨
裱
裳
裴
裸
裹
製
裾
褂
複
褐
褒
褓
褔
褚
褥
褪
褫
褲
褶
褻
襁
襄
襟
襠
襪
襬
襯
襲
西
要
覃
覆
覇
見
規
覓
視
覚
覦
覧
親
覬
観
覷
覺
覽
觀
见
观
规
觅
视
览
觉
觊
觎
觐
觑
角
觞
解
觥
触
觸
言
訂
計
訊
討
訓
訕
訖
託
記
訛
訝
訟
訣
訥
訪
設
許
訳
訴
訶
診
註
証
詆
詐
詔
評
詛
詞
詠
詡
詢
詣
試
詩
詫
詬
詭
詮
詰
話
該
詳
詹
詼
誅
誇
誉
誌
認
誓
誕
誘
語
誠
誡
誣
誤
誥
誦
誨
說
説
読
誰
課
誹
誼
調
諄
談
請
諏
諒
論
諗
諜
諡
諦
諧
諫
諭
諮
諱
諳
諷
諸
諺
諾
謀
謁
謂
謄
謊
謎
謐
謔
謗
謙
講
謝
謠
謨
謬
謹
謾
譁
證
譎
譏
識
譙
譚
譜
警
譬
譯
議
譲
譴
護
譽
讀
變
讓
讚
讞
计
订
认
讥
讧
讨
让
讪
讫
训
议
讯
记
讲
讳
讴
讶
讷
许
讹
论
讼
讽
设
访
诀
证
诃
评
诅
识
诈
诉
诊
诋
词
诏
译
试
诗
诘
诙
诚
诛
话
诞
诟
诠
诡
询
诣
诤
该
详
诧
诩
诫
诬
语
误
诰
诱
诲
说
诵
诶
请
诸
诺
读
诽
课
诿
谀
谁
调
谄
谅
谆
谈
谊
谋
谌
谍
谎
谏
谐
谑
谒
谓
谔
谕
谗
谘
谙
谚
谛
谜
谟
谢
谣
谤
谥
谦
谧
谨
谩
谪
谬
谭
谯
谱
谲
谴
谶
谷
豁
豆
豇
豈
豉
豊
豌
豎
豐
豔
豚
象
豢
豪
豫
豬
豹
豺
貂
貅
貌
貓
貔
貘
貝
貞
負
財
貢
貧
貨
販
貪
貫
責
貯
貰
貳
貴
貶
買
貸
費
貼
貽
貿
賀
賁
賂
賃
賄
資
賈
賊
賑
賓
賜
賞
賠
賡
賢
賣
賤
賦
質
賬
賭
賴
賺
購
賽
贅
贈
贊
贍
贏
贓
贖
贛
贝
贞
负
贡
财
责
贤
败
账
货
质
贩
贪
贫
贬
购
贮
贯
贰
贱
贲
贴
贵
贷
贸
费
贺
贻
贼
贾
贿
赁
赂
赃
资
赅
赈
赊
赋
赌
赎
赏
赐
赓
赔
赖
赘
赚
赛
赝
赞
赠
赡
赢
赣
赤
赦
赧
赫
赭
走
赳
赴
赵
赶
起
趁
超
越
趋
趕
趙
趟
趣
趨
足
趴
趵
趸
趺
趾
跃
跄
跆
跋
跌
跎
跑
跖
跚
跛
距
跟
跡
跤
跨
跩
跪
路
跳
践
跷
跹
跺
跻
踉
踊
踌
踏
踐
踝
踞
踟
踢
踩
踪
踮
踱
踴
踵
踹
蹂
蹄
蹇
蹈
蹉
蹊
蹋
蹑
蹒
蹙
蹟
蹣
蹤
蹦
蹩
蹬
蹭
蹲
蹴
蹶
蹺
蹼
蹿
躁
躇
躉
躊
躋
躍
躏
躪
身
躬
躯
躲
躺
軀
車
軋
軌
軍
軒
軟
転
軸
軼
軽
軾
較
載
輒
輓
輔
輕
輛
輝
輟
輩
輪
輯
輸
輻
輾
輿
轄
轅
轆
轉
轍
轎
轟
车
轧
轨
轩
转
轭
轮
软
轰
轲
轴
轶
轻
轼
载
轿
较
辄
辅
辆
辇
辈
辉
辊
辍
辐
辑
输
辕
辖
辗
辘
辙
辛
辜
辞
辟
辣
辦
辨
辩
辫
辭
辮
辯
辰
辱
農
边
辺
辻
込
辽
达
迁
迂
迄
迅
过
迈
迎
运
近
返
还
这
进
远
违
连
迟
迢
迤
迥
迦
迩
迪
迫
迭
述
迴
迷
迸
迹
迺
追
退
送
适
逃
逅
逆
选
逊
逍
透
逐
递
途
逕
逗
這
通
逛
逝
逞
速
造
逢
連
逮
週
進
逵
逶
逸
逻
逼
逾
遁
遂
遅
遇
遊
運
遍
過
遏
遐
遑
遒
道
達
違
遗
遙
遛
遜
遞
遠
遢
遣
遥
遨
適
遭
遮
遲
遴
遵
遶
遷
選
遺
遼
遽
避
邀
邁
邂
邃
還
邇
邈
邊
邋
邏
邑
邓
邕
邛
邝
邢
那
邦
邨
邪
邬
邮
邯
邰
邱
邳
邵
邸
邹
邺
邻
郁
郅
郊
郎
郑
郜
郝
郡
郢
郤
郦
郧
部
郫
郭
郴
郵
郷
郸
都
鄂
鄉
鄒
鄔
鄙
鄞
鄢
鄧
鄭
鄰
鄱
鄲
鄺
酉
酊
酋
酌
配
酐
酒
酗
酚
酝
酢
酣
酥
酩
酪
酬
酮
酯
酰
酱
酵
酶
酷
酸
酿
醃
醇
醉
醋
醍
醐
醒
醚
醛
醜
醞
醣
醪
醫
醬
醮
醯
醴
醺
釀
釁
采
釉
释
釋
里
重
野
量
釐
金
釗
釘
釜
針
釣
釦
釧
釵
鈀
鈉
鈍
鈎
鈔
鈕
鈞
鈣
鈦
鈪
鈴
鈺
鈾
鉀
鉄
鉅
鉉
鉑
鉗
鉚
鉛
鉤
鉴
鉻
銀
銃
銅
銑
銓
銖
銘
銜
銬
銭
銮
銳
銷
銹
鋁
鋅
鋒
鋤
鋪
鋰
鋸
鋼
錄
錐
錘
錚
錠
錢
錦
錨
錫
錮
錯
録
錳
錶
鍊
鍋
鍍
鍛
鍥
鍰
鍵
鍺
鍾
鎂
鎊
鎌
鎏
鎔
鎖
鎗
鎚
鎧
鎬
鎮
鎳
鏈
鏖
鏗
鏘
鏞
鏟
鏡
鏢
鏤
鏽
鐘
鐮
鐲
鐳
鐵
鐸
鐺
鑄
鑊
鑑
鑒
鑣
鑫
鑰
鑲
鑼
鑽
鑾
鑿
针
钉
钊
钎
钏
钒
钓
钗
钙
钛
钜
钝
钞
钟
钠
钡
钢
钣
钤
钥
钦
钧
钨
钩
钮
钯
钰
钱
钳
钴
钵
钺
钻
钼
钾
钿
铀
铁
铂
铃
铄
铅
铆
铉
铎
铐
铛
铜
铝
铠
铡
铢
铣
铤
铨
铩
铬
铭
铮
铰
铲
铵
银
铸
铺
链
铿
销
锁
锂
锄
锅
锆
锈
锉
锋
锌
锏
锐
锑
错
锚
锟
锡
锢
锣
锤
锥
锦
锭
键
锯
锰
锲
锵
锹
锺
锻
镀
镁
镂
镇
镉
镌
镍
镐
镑
镕
镖
镗
镛
镜
镣
镭
镯
镰
镳
镶
長
长
門
閃
閉
開
閎
閏
閑
閒
間
閔
閘
閡
関
閣
閥
閨
閩
閱
閲
閹
閻
閾
闆
闇
闊
闌
闍
闔
闕
闖
闘
關
闡
闢
门
闪
闫
闭
问
闯
闰
闲
间
闵
闷
闸
闹
闺
闻
闽
闾
阀
阁
阂
阅
阆
阇
阈
阉
阎
阐
阑
阔
阕
阖
阙
阚
阜
队
阡
阪
阮
阱
防
阳
阴
阵
阶
阻
阿
陀
陂
附
际
陆
陇
陈
陋
陌
降
限
陕
陛
陝
陞
陟
陡
院
陣
除
陨
险
陪
陰
陲
陳
陵
陶
陷
陸
険
陽
隅
隆
隈
隊
隋
隍
階
随
隐
隔
隕
隘
隙
際
障
隠
隣
隧
隨
險
隱
隴
隶
隸
隻
隼
隽
难
雀
雁
雄
雅
集
雇
雉
雋
雌
雍
雎
雏
雑
雒
雕
雖
雙
雛
雜
雞
離
難
雨
雪
雯
雰
雲
雳
零
雷
雹
電
雾
需
霁
霄
霆
震
霈
霉
霊
霍
霎
霏
霑
霓
霖
霜
霞
霧
霭
霰
露
霸
霹
霽
霾
靂
靄
靈
青
靓
靖
静
靚
靛
靜
非
靠
靡
面
靥
靦
革
靳
靴
靶
靼
鞅
鞋
鞍
鞏
鞑
鞘
鞠
鞣
鞦
鞭
韆
韋
韌
韓
韜
韦
韧
韩
韬
韭
音
韵
韶
韻
響
頁
頂
頃
項
順
須
頌
預
頑
頒
頓
頗
領
頜
頡
頤
頫
頭
頰
頷
頸
頹
頻
頼
顆
題
額
顎
顏
顔
願
顛
類
顧
顫
顯
顱
顴
页
顶
顷
项
顺
须
顼
顽
顾
顿
颁
颂
预
颅
领
颇
颈
颉
颊
颌
颍
颐
频
颓
颔
颖
颗
题
颚
颛
颜
额
颞
颠
颡
颢
颤
颦
颧
風
颯
颱
颳
颶
颼
飄
飆
风
飒
飓
飕
飘
飙
飚
飛
飞
食
飢
飨
飩
飪
飯
飲
飼
飽
飾
餃
餅
餉
養
餌
餐
餒
餓
餘
餚
餛
餞
餡
館
餮
餵
餾
饅
饈
饋
饌
饍
饑
饒
饕
饗
饞
饥
饨
饪
饬
饭
饮
饯
饰
饱
饲
饴
饵
饶
饷
饺
饼
饽
饿
馀
馁
馄
馅
馆
馈
馋
馍
馏
馒
馔
首
馗
香
馥
馨
馬
馭
馮
馳
馴
駁
駄
駅
駆
駐
駒
駕
駛
駝
駭
駱
駿
騁
騎
騏
験
騙
騨
騰
騷
驀
驅
驊
驍
驒
驕
驗
驚
驛
驟
驢
驥
马
驭
驮
驯
驰
驱
驳
驴
驶
驷
驸
驹
驻
驼
驾
驿
骁
骂
骄
骅
骆
骇
骈
骊
骋
验
骏
骐
骑
骗
骚
骛
骜
骞
骠
骡
骤
骥
骧
骨
骯
骰
骶
骷
骸
骼
髂
髅
髋
髏
髒
髓
體
髖
高
髦
髪
髮
髯
髻
鬃
鬆
鬍
鬓
鬚
鬟
鬢
鬣
鬥
鬧
鬱
鬼
魁
魂
魄
魅
魇
魍
魏
魔
魘
魚
魯
魷
鮑
鮨
鮪
鮭
鮮
鯉
鯊
鯖
鯛
鯨
鯰
鯽
鰍
鰓
鰭
鰲
鰻
鰾
鱈
鱉
鱔
鱗
鱷
鱸
鱼
鱿
鲁
鲈
鲍
鲑
鲛
鲜
鲟
鲢
鲤
鲨
鲫
鲱
鲲
鲶
鲷
鲸
鳃
鳄
鳅
鳌
鳍
鳕
鳖
鳗
鳝
鳞
鳥
鳩
鳳
鳴
鳶
鴉
鴕
鴛
鴦
鴨
鴻
鴿
鵑
鵜
鵝
鵡
鵬
鵰
鵲
鶘
鶩
鶯
鶴
鷗
鷲
鷹
鷺
鸚
鸞
鸟
鸠
鸡
鸢
鸣
鸥
鸦
鸨
鸪
鸭
鸯
鸳
鸵
鸽
鸾
鸿
鹂
鹃
鹄
鹅
鹈
鹉
鹊
鹌
鹏
鹑
鹕
鹘
鹜
鹞
鹤
鹦
鹧
鹫
鹭
鹰
鹳
鹵
鹹
鹼
鹽
鹿
麂
麋
麒
麓
麗
麝
麟
麥
麦
麩
麴
麵
麸
麺
麻
麼
麽
麾
黃
黄
黍
黎
黏
黑
黒
黔
默
黛
黜
黝
點
黠
黨
黯
黴
鼋
鼎
鼐
鼓
鼠
鼬
鼹
鼻
鼾
齁
齊
齋
齐
齒
齡
齢
齣
齦
齿
龄
龅
龈
龊
龋
龌
龍
龐
龔
龕
龙
龚
龛
龜
龟
︰
︱
︶
︿
﹁
﹂
﹍
﹏
﹐
﹑
﹒
﹔
﹕
﹖
﹗
﹙
﹚
﹝
﹞
﹡
﹣
！
＂
＃
＄
％
＆
＇
（
）
＊
＋
，
－
．
／
０
１
２
３
４
５
６
７
８
９
：
；
＜
＝
＞
？
＠
［
＼
］
＾
＿
｀
ａ
ｂ
ｃ
ｄ
ｅ
ｆ
ｇ
ｈ
ｉ
ｊ
ｋ
ｌ
ｍ
ｎ
ｏ
ｐ
ｑ
ｒ
ｓ
ｔ
ｕ
ｖ
ｗ
ｘ
ｙ
ｚ
｛
｜
｝
～
｡
｢
｣
､
･
ｯ
ｰ
ｲ
ｸ
ｼ
ｽ
ﾄ
ﾉ
ﾌ
ﾗ
ﾙ
ﾝ
ﾞ
ﾟ
￣
￥
👍
🔥
😂
😎
...
yam
10
2017
12
11
2016
20
30
15
06
lofter
##s
2015
by
16
14
18
13
24
17
2014
21
##0
22
19
25
23
com
100
00
05
2013
##a
03
09
08
28
##2
50
01
04
##1
27
02
2012
##3
26
##e
07
##8
##5
##6
##4
##9
##7
29
2011
40
##t
2010
##o
##d
##i
2009
##n
app
www
the
##m
31
##c
##l
##y
##r
##g
2008
60
http
200
qq
##p
80
##f
google
pixnet
90
cookies
tripadvisor
500
##er
##k
35
##h
facebook
2007
2000
70
##b
of
##x
##u
45
300
iphone
32
1000
2006
48
ip
36
in
38
3d
##w
##ing
55
ctrip
##on
##v
33
##の
to
34
400
id
2005
it
37
windows
llc
top
99
42
39
000
led
at
##an
41
51
52
46
49
43
53
44
##z
android
58
and
59
2004
56
vr
##か
5000
2003
47
blogthis
twitter
54
##le
150
ok
2018
57
75
cn
no
ios
##in
##mm
##00
800
on
te
3000
65
2001
360
95
ig
lv
120
##ng
##を
##us
##に
pc
てす
──
600
##te
85
2002
88
##ed
html
ncc
wifi
email
64
blog
is
##10
##て
mail
online
##al
dvd
##ic
studio
##は
##℃
##ia
##と
line
vip
72
##q
98
##ce
##en
for
##is
##ra
##es
##j
usb
net
cp
1999
asia
4g
##cm
diy
new
3c
##お
ta
66
language
vs
apple
tw
86
web
##ne
ipad
62
you
##re
101
68
##tion
ps
de
bt
pony
atm
##2017
1998
67
##ch
ceo
##or
go
##na
av
pro
cafe
96
pinterest
97
63
pixstyleme3c
##ta
more
said
##2016
1997
mp3
700
##ll
nba
jun
##20
92
tv
1995
pm
61
76
nbsp
250
##ie
linux
##ma
cd
110
hd
##17
78
##ion
77
6000
am
##th
##st
94
##se
##et
69
180
gdp
my
105
81
abc
89
flash
79
one
93
1990
1996
##ck
gps
##も
##ly
web885
106
2020
91
##ge
4000
1500
xd
boss
isbn
1994
org
##ry
me
love
##11
0fork
73
##12
3g
##ter
##ar
71
82
##la
hotel
130
1970
pk
83
87
140
ie
##os
##30
##el
74
##50
seo
cpu
##ml
p2p
84
may
##る
sun
tue
internet
cc
posted
youtube
##at
##ン
##man
ii
##ル
##15
abs
nt
pdf
yahoo
ago
1980
##it
news
mac
104
##てす
##me
##り
java
1992
spa
##de
##nt
hk
all
plus
la
1993
##mb
##16
##ve
west
##da
160
air
##い
##ps
から
##to
1989
logo
htc
php
https
fi
momo
##son
sat
##ke
##80
ebd
suv
wi
day
apk
##88
##um
mv
galaxy
wiki
or
brake
##ス
1200
する
this
1991
mon
##こ
❤2017
po
##ない
javascript
life
home
june
##ss
system
900
##ー
##０
pp
1988
world
fb
4k
br
##as
ic
ai
leonardo
safari
##60
live
free
xx
wed
win7
kiehl
##co
lg
o2o
##go
us
235
1949
mm
しい
vfm
kanye
##90
##2015
##id
jr
##ey
123
rss
##sa
##ro
##am
##no
thu
fri
350
##sh
##ki
103
comments
name
##のて
##pe
##ine
max
1987
8000
uber
##mi
##ton
wordpress
office
1986
1985
##ment
107
bd
win10
##ld
##li
gmail
bb
dior
##rs
##ri
##rd
##ます
up
cad
##®
dr
して
read
##21
をお
##io
##99
url
1984
pvc
paypal
show
policy
##40
##ty
##18
with
##★
##01
txt
102
##ba
dna
from
post
mini
ar
taiwan
john
##ga
privacy
agoda
##13
##ny
word
##24
##22
##by
##ur
##hz
1982
##ang
265
cookie
netscape
108
##ka
##～
##ad
house
share
note
ibm
code
hello
nike
sim
survey
##016
1979
1950
wikia
##32
##017
5g
cbc
##tor
##kg
1983
##rt
##14
campaign
store
2500
os
##ct
##ts
##°
170
api
##ns
365
excel
##な
##ao
##ら
##し
～～
##nd
university
163
には
518
##70
##ya
##il
##25
pierre
ipo
0020
897
##23
hotels
##ian
のお
125
years
6606
##ers
##26
high
##day
time
##ay
bug
##line
##く
##す
##be
xp
talk2yam
yamservice
10000
coco
##dy
sony
##ies
1978
microsoft
david
people
##ha
1960
instagram
intel
その
##ot
iso
1981
##va
115
##mo
##land
xxx
man
co
ltxsw
##ation
baby
220
##pa
##ol
1945
7000
tag
450
##ue
msn
##31
oppo
##ト
##ca
control
##om
st
chrome
##ure
##ん
be
##き
lol
##19
した
##bo
240
lady
##100
##way
##から
4600
##ko
##do
##un
4s
corporation
168
##ni
herme
##28
ｃｐ
978
##up
##06
ui
##ds
ppt
admin
three
します
bbc
re
128
##48
ca
##015
##35
hp
##ee
tpp
##た
##ive
××
root
##cc
##ました
##ble
##ity
adobe
park
114
et
oled
city
##ex
##ler
##ap
china
##book
20000
view
##ice
global
##km
your
hong
##mg
out
##ms
ng
ebay
##29
menu
ubuntu
##cy
rom
##view
open
ktv
do
server
##lo
if
english
##ね
##５
##oo
1600
##02
step1
kong
club
135
july
inc
1976
mr
hi
##net
touch
##ls
##ii
michael
lcd
##05
##33
phone
james
step2
1300
ios9
##box
dc
##２
##ley
samsung
111
280
pokemon
css
##ent
##les
いいえ
##１
s8
atom
play
bmw
##said
sa
etf
ctrl
♥yoyo♥
##55
2025
##2014
##66
adidas
amazon
1958
##ber
##ner
visa
##77
##der
1800
connectivity
##hi
firefox
109
118
hr
so
style
mark
pop
ol
skip
1975
as
##27
##ir
##61
190
mba
##う
##ai
le
##ver
1900
cafe2017
lte
super
113
129
##ron
amd
like
##☆
are
##ster
we
##sk
paul
data
international
##ft
longchamp
ssd
good
##ート
##ti
reply
##my
↓↓↓
apr
star
##ker
source
136
js
112
get
force
photo
##one
126
##2013
##ow
link
bbs
1972
goods
##lin
python
119
##ip
game
##ics
##ません
blue
##●
520
##45
page
itunes
##03
1955
260
1968
gt
gif
618
##ff
##47
group
くたさい
about
bar
ganji
##nce
music
lee
not
1977
1971
1973
##per
an
faq
comment
##って
days
##ock
116
##bs
1974
1969
v1
player
1956
xbox
sql
fm
f1
139
##ah
210
##lv
##mp
##000
melody
1957
##３
550
17life
199
1966
xml
market
##au
##71
999
##04
what
gl
##95
##age
tips
##68
book
##ting
mysql
can
1959
230
##ung
wonderland
watch
10℃
##ction
9000
mar
mobile
1946
1962
article
##db
part
▲top
party
って
1967
1964
1948
##07
##ore
##op
この
dj
##78
##38
010
main
225
1965
##ong
art
320
ad
134
020
##73
117
pm2
japan
228
##08
ts
1963
##ica
der
sm
##36
2019
##wa
ct
##７
##や
##64
1937
homemesh
search
##85
##れは
##tv
##di
macbook
##９
##くたさい
service
##♥
type
った
750
##ier
##si
##75
##います
##ok
best
##ット
goris
lock
##った
cf
3m
big
##ut
ftp
carol
##vi
１０
1961
happy
sd
##ac
122
anti
pe
cnn
iii
1920
138
##ラ
1940
esp
jan
tags
##98
##51
august
vol
##86
154
##™
##fs
##れ
##sion
design
ac
##ム
press
jordan
ppp
that
key
check
##６
##tt
##㎡
1080p
##lt
power
##42
1952
##bc
vivi
##ック
he
133
121
jpg
##rry
201
175
3500
1947
nb
##ted
##rn
しています
1954
usd
##t00
master
##ンク
001
model
##58
al
##09
1953
##34
ram
goo
ても
##ui
127
1930
red
##ary
rpg
item
##pm
##41
270
##za
project
##2012
hot
td
blogabstract
##ger
##62
650
##44
gr2
##します
##ｍ
black
electronic
nfc
year
asus
また
html5
cindy
##hd
m3
132
esc
##od
booking
##53
fed
tvb
##81
##ina
mit
165
##いる
chan
192
distribution
next
になる
peter
bios
steam
cm
1941
にも
pk10
##ix
##65
##91
dec
nasa
##ana
icecat
00z
b1
will
##46
li
se
##ji
##み
##ard
oct
##ain
jp
##ze
##bi
cio
##56
smart
h5
##39
##port
curve
vpn
##nm
##dia
utc
##あり
12345678910
##52
rmvb
chanel
a4
miss
##and
##im
media
who
##63
she
girl
5s
124
vera
##して
class
vivo
king
##フ
##ei
national
ab
1951
5cm
888
145
ipod
ap
1100
5mm
211
ms
2756
##69
mp4
msci
##po
##89
131
mg
index
380
##bit
##out
##zz
##97
##67
158
apec
##８
photoshop
opec
￥799
ては
##96
##tes
##ast
2g
○○
##ール
￥2899
##ling
##よ
##ory
1938
##ical
kitty
content
##43
step3
##cn
win8
155
vc
1400
iphone7
robert
##した
tcl
137
beauty
##87
en
dollars
##ys
##oc
step
pay
yy
a1
##2011
##lly
##ks
##♪
1939
188
download
1944
sep
exe
ph
います
school
gb
center
pr
street
##board
uv
##37
##lan
winrar
##que
##ua
##com
1942
1936
480
gpu
##４
ettoday
fu
tom
##54
##ren
##via
149
##72
b2b
144
##79
##tch
rose
arm
mb
##49
##ial
##nn
nvidia
step4
mvp
00㎡
york
156
##イ
how
cpi
591
2765
gov
kg
joe
##xx
mandy
pa
##ser
copyright
fashion
1935
don
##け
ecu
##ist
##art
erp
wap
have
##lm
talk
##ek
##ning
##if
ch
##ite
video
1943
cs
san
iot
look
##84
##2010
##ku
october
##ux
trump
##hs
##ide
box
141
first
##ins
april
##ight
##83
185
angel
protected
aa
151
162
x1
m2
##fe
##×
##ho
size
143
min
ofo
fun
gomaji
ex
hdmi
food
dns
march
chris
kevin
##のか
##lla
##pp
##ec
ag
ems
6s
720p
##rm
##ham
off
##92
asp
team
fandom
ed
299
▌♥
##ell
info
されています
##82
sina
4066
161
##able
##ctor
330
399
315
dll
rights
ltd
idc
jul
3kg
1927
142
ma
surface
##76
##ク
～～～
304
mall
eps
146
green
##59
map
space
donald
v2
sodu
##light
1931
148
1700
まて
310
reserved
htm
##han
##57
2d
178
mod
##ise
##tions
152
ti
##shi
doc
1933
icp
055
wang
##ram
shopping
aug
##pi
##well
now
wam
b2
からお
##hu
236
1928
##gb
266
f2
##93
153
mix
##ef
##uan
bwl
##plus
##res
core
##ess
tea
5℃
hktvmall
nhk
##ate
list
##ese
301
feb
4m
inn
ての
nov
159
12345
daniel
##ci
pass
##bet
##nk
coffee
202
ssl
airbnb
##ute
fbi
woshipm
skype
ea
cg
sp
##fc
##www
yes
edge
alt
007
##94
fpga
##ght
##gs
iso9001
さい
##ile
##wood
##uo
image
lin
icon
american
##em
1932
set
says
##king
##tive
blogger
##74
なと
256
147
##ox
##zy
##red
##ium
##lf
nokia
claire
##リ
##ding
november
lohas
##500
##tic
##マ
##cs
##ある
##che
##ire
##gy
##ult
db
january
win
##カ
166
road
ptt
##ま
##つ
198
##fa
##mer
anna
pchome
はい
udn
ef
420
##time
##tte
2030
##ア
g20
white
かかります
1929
308
garden
eleven
di
##おります
chen
309b
777
172
young
cosplay
ちてない
4500
bat
##123
##tra
##ては
kindle
npc
steve
etc
##ern
##｜
call
xperia
ces
travel
sk
s7
##ous
1934
##int
みいたたけます
183
edu
file
cho
qr
##car
##our
186
##ant
##ｄ
eric
1914
rends
##jo
##する
mastercard
##2000
kb
##min
290
##ino
vista
##ris
##ud
jack
2400
##set
169
pos
1912
##her
##ou
taipei
しく
205
beta
##ませんか
232
##fi
express
255
body
##ill
aphojoy
user
december
meiki
##ick
tweet
richard
##av
##ᆫ
iphone6
##dd
ちてすか
views
##mark
321
pd
##００
times
##▲
level
##ash
10g
point
5l
##ome
208
koreanmall
##ak
george
q2
206
wma
tcp
##200
スタッフ
full
mlb
##lle
##watch
tm
run
179
911
smith
business
##und
1919
color
##tal
222
171
##less
moon
4399
##rl
update
pcb
shop
499
157
little
なし
end
##mhz
van
dsp
easy
660
##house
##key
history
##ｏ
oh
##001
##hy
##web
oem
let
was
##2009
##gg
review
##wan
182
##°c
203
uc
title
##val
united
233
2021
##ons
doi
trivago
overdope
sbs
##ance
##ち
grand
special
573032185
imf
216
wx17house
##so
##ーム
audi
##he
london
william
##rp
##ake
science
beach
cfa
amp
ps4
880
##800
##link
##hp
crm
ferragamo
bell
make
##eng
195
under
zh
photos
2300
##style
##ント
via
176
da
##gi
company
i7
##ray
thomas
370
ufo
i5
##max
plc
ben
back
research
8g
173
mike
##pc
##ッフ
september
189
##ace
vps
february
167
pantos
wp
lisa
1921
★★
jquery
night
long
offer
##berg
##news
1911
##いて
ray
fks
wto
せます
over
164
340
##all
##rus
1924
##888
##works
blogtitle
loftpermalink
##→
187
martin
test
ling
km
##め
15000
fda
v3
##ja
##ロ
ｗedding
かある
outlet
family
##ea
をこ
##top
story
##ness
salvatore
##lu
204
swift
215
room
している
oracle
##ul
1925
sam
b2c
week
pi
rock
##のは
##ａ
##けと
##ean
##300
##gle
cctv
after
chinese
##back
powered
x2
##tan
1918
##nes
##イン
canon
only
181
##zi
##las
say
##oe
184
##sd
221
##bot
##world
##zo
sky
made
top100
just
1926
pmi
802
234
gap
##vr
177
les
174
▲topoct
ball
vogue
vi
ing
ofweek
cos
##list
##ort
▲topmay
##なら
##lon
として
last
##tc
##of
##bus
##gen
real
eva
##コ
a3
nas
##lie
##ria
##coin
##bt
▲topapr
his
212
cat
nata
vive
health
⋯⋯
drive
sir
▲topmar
du
cup
##カー
##ook
##よう
##sy
alex
msg
tour
しました
3ce
##word
193
ebooks
r8
block
318
##より
2200
nice
pvp
207
months
1905
rewards
##ther
1917
0800
##xi
##チ
##sc
micro
850
gg
blogfp
op
1922
daily
m1
264
true
##bb
ml
##tar
##のお
##ky
anthony
196
253
##yo
state
218
##ara
##aa
##rc
##tz
##ston
より
gear
##eo
##ade
ge
see
1923
##win
##ura
ss
heart
##den
##ita
down
##sm
el
png
2100
610
rakuten
whatsapp
bay
dream
add
##use
680
311
pad
gucci
mpv
##ode
##fo
island
▲topjun
##▼
223
jason
214
chicago
##❤
しの
##hone
io
##れる
##ことか
sogo
be2
##ology
990
cloud
vcd
##con
2～3
##ford
##joy
##kb
##こさいます
##rade
but
##ach
docker
##ful
rfid
ul
##ase
hit
ford
##star
580
##○
１１
a2
sdk
reading
edited
##are
cmos
##mc
238
siri
light
##ella
##ため
bloomberg
##read
pizza
##ison
jimmy
##vm
college
node
journal
ba
18k
##play
245
##cer
２０
magic
##yu
191
jump
288
tt
##ings
asr
##lia
3200
step5
network
##cd
mc
いします
1234
pixstyleme
273
##600
2800
money
★★★★★
1280
１２
430
bl
みの
act
##tus
tokyo
##rial
##life
emba
##ae
saas
tcs
##rk
##wang
summer
##sp
ko
##ving
390
premium
##その
netflix
##ヒ
uk
mt
##lton
right
frank
two
209
える
##ple
##cal
021
##んな
##sen
##ville
hold
nexus
dd
##ius
てお
##mah
##なく
tila
zero
820
ce
##tin
resort
##ws
charles
old
p10
5d
report
##360
##ru
##には
bus
vans
lt
##est
pv
##レ
links
rebecca
##ツ
##dm
azure
##365
きな
limited
bit
4gb
##mon
1910
moto
##eam
213
1913
var
eos
なとの
226
blogspot
された
699
e3
dos
dm
fc
##ments
##ik
##kw
boy
##bin
##ata
960
er
##せ
219
##vin
##tu
##ula
194
##∥
station
##ろ
##ature
835
files
zara
hdr
top10
nature
950
magazine
s6
marriott
##シ
avira
case
##っと
tab
##ran
tony
##home
oculus
im
##ral
jean
saint
cry
307
rosie
##force
##ini
ice
##bert
のある
##nder
##mber
pet
2600
##◆
plurk
▲topdec
##sis
00kg
▲topnov
720
##ence
tim
##ω
##nc
##ても
##name
log
ips
great
ikea
malaysia
unix
##イト
3600
##ncy
##nie
12000
akb48
##ye
##oid
404
##chi
##いた
oa
xuehai
##1000
##orm
##rf
275
さん
##ware
##リー
980
ho
##pro
text
##era
560
bob
227
##ub
##2008
8891
scp
avi
##zen
2022
mi
wu
museum
qvod
apache
lake
jcb
▲topaug
★★★
ni
##hr
hill
302
ne
weibo
490
ruby
##ーシ
##ヶ
##row
4d
▲topjul
iv
##ish
github
306
mate
312
##スト
##lot
##ane
andrew
のハイト
##tina
t1
rf
ed2k
##vel
##900
way
final
りの
ns
5a
705
197
##メ
sweet
bytes
##ene
▲topjan
231
##cker
##2007
##px
100g
topapp
229
helpapp
rs
low
14k
g4g
care
630
ldquo
あり
##fork
leave
rm
edition
##gan
##zon
##qq
▲topsep
##google
##ism
gold
224
explorer
##zer
toyota
category
select
visual
##labels
restaurant
##md
posts
s1
##ico
もっと
angelababy
123456
217
sports
s3
mbc
1915
してくたさい
shell
x86
candy
##new
kbs
face
xl
470
##here
4a
swissinfo
v8
▲topfeb
dram
##ual
##vice
3a
##wer
sport
q1
ios10
public
int
card
##ｃ
ep
au
rt
##れた
1080
bill
##mll
kim
３０
460
wan
##uk
##ミ
x3
298
0t
scott
##ming
239
e5
##3d
h7n9
worldcat
brown
##あります
##vo
##led
##580
##ax
249
410
##ert
paris
##～6
polo
925
##lr
599
##ナ
capital
##hing
bank
cv
1g
##chat
##ｓ
##たい
adc
##ule
2m
##ｅ
digital
hotmail
268
##pad
870
bbq
quot
##ring
before
wali
##まて
mcu
2k
2b
という
costco
316
north
333
switch
##city
##ｐ
philips
##mann
management
panasonic
##cl
##vd
##ping
##rge
alice
##lk
##ましょう
css3
##ney
vision
alpha
##ular
##400
##tter
lz
にお
##ありません
mode
gre
1916
pci
##tm
237
1～2
##yan
##そ
について
##let
##キ
work
war
coach
ah
mary
##ᅵ
huang
##pt
a8
pt
follow
##berry
1895
##ew
a5
ghost
##ション
##wn
##og
south
##code
girls
##rid
action
villa
git
r11
table
games
##cket
error
##anonymoussaid
##ag
here
##ame
##gc
qa
##■
##lis
gmp
##gin
vmalife
##cher
yu
wedding
##tis
demo
dragon
530
soho
social
bye
##rant
river
orz
acer
325
##↑
##ース
##ats
261
del
##ven
440
ups
##ように
##ター
305
value
macd
yougou
##dn
661
##ano
ll
##urt
##rent
continue
script
##wen
##ect
paper
263
319
shift
##chel
##フト
##cat
258
x5
fox
243
##さん
car
aaa
##blog
loading
##yn
##tp
kuso
799
si
sns
イカせるテンマ
ヒンクテンマ3
rmb
vdc
forest
central
prime
help
ultra
##rmb
##ような
241
square
688
##しい
のないフロクに
##field
##reen
##ors
##ju
c1
start
510
##air
##map
cdn
##wo
cba
stephen
m8
100km
##get
opera
##base
##ood
vsa
com™
##aw
##ail
251
なのて
count
t2
##ᅡ
##een
2700
hop
##gp
vsc
tree
##eg
##ose
816
285
##ories
##shop
alphago
v4
1909
simon
##ᆼ
fluke62max
zip
スホンサー
##sta
louis
cr
bas
##～10
bc
##yer
hadoop
##ube
##wi
1906
0755
hola
##low
place
centre
5v
d3
##fer
252
##750
##media
281
540
0l
exchange
262
series
##ハー
##san
eb
##bank
##ｋ
q3
##nge
##mail
take
##lp
259
1888
client
east
cache
event
vincent
##ールを
きを
##nse
sui
855
adchoice
##и
##stry
##なたの
246
##zone
ga
apps
sea
##ab
248
cisco
##タ
##rner
kymco
##care
dha
##pu
##yi
minkoff
royal
p1
への
annie
269
collection
kpi
playstation
257
になります
866
bh
##bar
queen
505
radio
1904
andy
armani
##xy
manager
iherb
##ery
##share
spring
raid
johnson
1908
##ob
volvo
hall
##ball
v6
our
taylor
##hk
bi
242
##cp
kate
bo
water
technology
##rie
サイトは
277
##ona
##sl
hpv
303
gtx
hip
rdquo
jayz
stone
##lex
##rum
namespace
##やり
620
##ale
##atic
des
##erson
##ql
##ves
##type
enter
##この
##てきます
d2
##168
##mix
##bian
との
a9
jj
ky
##lc
access
movie
##hc
リストに
tower
##ration
##mit
ます
##nch
ua
tel
prefix
##o2
1907
##point
1901
ott
～10
##http
##ury
baidu
##ink
member
##logy
bigbang
nownews
##js
##shot
##tb
##こと
247
eba
##tics
##lus
ける
v5
spark
##ama
there
##ions
god
##lls
##down
hiv
##ress
burberry
day2
##kv
◆◆
jeff
related
film
edit
joseph
283
##ark
cx
32gb
order
g9
30000
##ans
##tty
s5
##bee
かあります
thread
xr
buy
sh
005
land
spotify
mx
##ari
276
##verse
×email
sf
why
##ことて
244
7headlines
nego
sunny
dom
exo
401
666
positioning
fit
rgb
##tton
278
kiss
alexa
adam
lp
みリストを
##ｇ
mp
##ties
##llow
amy
##du
np
002
institute
271
##rth
##lar
2345
590
##des
sidebar
１５
imax
site
##cky
##kit
##ime
##009
season
323
##fun
##ンター
##ひ
gogoro
a7
pu
lily
fire
twd600
##ッセーシを
いて
##vis
30ml
##cture
##をお
information
##オ
close
friday
##くれる
yi
nick
てすか
##tta
##tel
6500
##lock
cbd
economy
254
かお
267
tinker
double
375
8gb
voice
##app
oops
channel
today
985
##right
raw
xyz
##＋
jim
edm
##cent
7500
supreme
814
ds
##its
##asia
dropbox
##てすか
##tti
books
272
100ml
##tle
##ller
##ken
##more
##boy
sex
309
##dom
t3
##ider
##なります
##unch
1903
810
feel
5500
##かった
##put
により
s2
mo
##gh
men
ka
amoled
div
##tr
##n1
port
howard
##tags
ken
dnf
##nus
adsense
##а
ide
##へ
buff
thunder
##town
##ique
has
##body
auto
pin
##erry
tee
てした
295
number
##the
##013
object
psp
cool
udnbkk
16gb
##mic
miui
##tro
most
r2
##alk
##nity
1880
±0
##いました
428
s4
law
version
##oa
n1
sgs
docomo
##tf
##ack
henry
fc2
##ded
##sco
##014
##rite
286
0mm
linkedin
##ada
##now
wii
##ndy
ucbug
##◎
sputniknews
legalminer
##ika
##xp
2gb
##bu
q10
oo
b6
come
##rman
cheese
ming
maker
##gm
nikon
##fig
ppi
kelly
##ります
jchere
てきます
ted
md
003
fgo
tech
##tto
dan
soc
##gl
##len
hair
earth
640
521
img
##pper
##a1
##てきる
##ロク
acca
##ition
##ference
suite
##ig
outlook
##mond
##cation
398
##pr
279
101vip
358
##999
282
64gb
3800
345
airport
##over
284
##おり
jones
##ith
lab
##su
##いるのて
co2
town
piece
##llo
no1
vmware
24h
##qi
focus
reader
##admin
##ora
tb
false
##log
1898
know
lan
838
##ces
f4
##ume
motel
stop
##oper
na
flickr
netcomponents
##af
##─
pose
williams
local
##ound
##cg
##site
##iko
いお
274
5m
gsm
con
##ath
1902
friends
##hip
cell
317
##rey
780
cream
##cks
012
##dp
facebooktwitterpinterestgoogle
sso
324
shtml
song
swiss
##mw
##キンク
lumia
xdd
string
tiffany
522
marc
られた
insee
russell
sc
dell
##ations
ｏｋ
camera
289
##vs
##flow
##late
classic
287
##nter
stay
g1
mtv
512
##ever
##lab
##nger
qe
sata
ryan
d1
50ml
cms
##cing
su
292
3300
editor
296
##nap
security
sunday
association
##ens
##700
##bra
acg
##かり
sofascore
とは
mkv
##ign
jonathan
gary
build
labels
##oto
tesla
moba
qi
gohappy
general
ajax
1024
##かる
サイト
society
##test
##urs
wps
fedora
##ich
mozilla
328
##480
##dr
usa
urn
##lina
##ｒ
grace
##die
##try
##ader
1250
##なり
elle
570
##chen
##ᆯ
price
##ten
uhz
##ough
eq
##hen
states
push
session
balance
wow
506
##cus
##py
when
##ward
##ep
34e
wong
library
prada
##サイト
##cle
running
##ree
313
ck
date
q4
##ctive
##ool
##＞
mk
##ira
##163
388
die
secret
rq
dota
buffet
は１ヶ
e6
##ez
pan
368
ha
##card
##cha
2a
##さ
alan
day3
eye
f3
##end
france
keep
adi
rna
tvbs
##ala
solo
nova
##え
##tail
##ょう
support
##ries
##なる
##ved
base
copy
iis
fps
##ways
hero
hgih
profile
fish
mu
ssh
entertainment
chang
##wd
click
cake
##ond
pre
##tom
kic
pixel
##ov
##fl
product
6a
##pd
dear
##gate
es
yumi
audio
##²
##sky
echo
bin
where
##ture
329
##ape
find
sap
isis
##なと
nand
##101
##load
##ream
band
a6
525
never
##post
festival
50cm
##we
555
guide
314
zenfone
##ike
335
gd
forum
jessica
strong
alexander
##ould
software
allen
##ious
program
360°
else
lohasthree
##gar
することかてきます
please
##れます
rc
##ggle
##ric
bim
50000
##own
eclipse
355
brian
3ds
##side
061
361
##other
##ける
##tech
##ator
485
engine
##ged
##ｔ
plaza
##fit
cia
ngo
westbrook
shi
tbs
50mm
##みませんか
sci
291
reuters
##ily
contextlink
##hn
af
##cil
bridge
very
##cel
1890
cambridge
##ize
15g
##aid
##data
790
frm
##head
award
butler
##sun
meta
##mar
america
ps3
puma
pmid
##すか
lc
670
kitchen
##lic
オーフン5
きなしソフトサーヒス
そして
day1
future
★★★★
##text
##page
##rris
pm1
##ket
fans
##っています
1001
christian
bot
kids
trackback
##hai
c3
display
##hl
n2
1896
idea
さんも
##sent
airmail
##ug
##men
pwm
けます
028
##lution
369
852
awards
schemas
354
asics
wikipedia
font
##tional
##vy
c2
293
##れている
##dget
##ein
っている
contact
pepper
スキル
339
##～5
294
##uel
##ument
730
##hang
みてす
q5
##sue
rain
##ndi
wei
swatch
##cept
わせ
331
popular
##ste
##tag
p2
501
trc
1899
##west
##live
justin
honda
ping
messenger
##rap
v9
543
##とは
unity
appqq
はすへて
025
leo
##tone
##テ
##ass
uniqlo
##010
502
her
jane
memory
moneydj
##tical
human
12306
していると
##m2
coc
miacare
##mn
tmt
##core
vim
kk
##may
fan
target
use
too
338
435
2050
867
737
fast
##2c
services
##ope
omega
energy
##わ
pinkoi
1a
##なから
##rain
jackson
##ement
##シャンルの
374
366
そんな
p9
rd
##ᆨ
1111
##tier
##vic
zone
##│
385
690
dl
isofix
cpa
m4
322
kimi
めて
davis
##lay
lulu
##uck
050
weeks
qs
##hop
920
##ｎ
ae
##ear
～5
eia
405
##fly
korea
jpeg
boost
##ship
small
##リア
1860
eur
297
425
valley
##iel
simple
##ude
rn
k2
##ena
されます
non
patrick
しているから
##ナー
feed
5757
30g
process
well
qqmei
##thing
they
aws
lu
pink
##ters
##kin
または
board
##vertisement
wine
##ien
unicode
##dge
r1
359
##tant
いを
##twitter
##3c
cool1
される
##れて
##ｌ
isp
##012
standard
45㎡2
402
##150
matt
##fu
326
##iner
googlemsn
pixnetfacebookyahoo
##ラン
x7
886
##uce
メーカー
sao
##ev
##きました
##file
9678
403
xddd
shirt
6l
##rio
##hat
3mm
givenchy
ya
bang
##lio
monday
crystal
ロクイン
##abc
336
head
890
ubuntuforumwikilinuxpastechat
##vc
##～20
##rity
cnc
7866
ipv6
null
1897
##ost
yang
imsean
tiger
##fet
##ンス
352
##＝
dji
327
ji
maria
##come
##んて
foundation
3100
##beth
##なった
1m
601
active
##aft
##don
3p
sr
349
emma
##khz
living
415
353
1889
341
709
457
sas
x6
##face
pptv
x4
##mate
han
sophie
##jing
337
fifa
##mand
other
sale
inwedding
##gn
てきちゃいます
##mmy
##pmlast
bad
nana
nbc
してみてくたさいね
なとはお
##wu
##かあります
##あ
note7
single
##340
せからこ
してくたさい♪この
しにはとんとんワークケートを
するとあなたにもっとマッチした
ならワークケートへ
もみつかっちゃうかも
ワークケートの
##bel
window
##dio
##ht
union
age
382
１４
##ivity
##ｙ
コメント
domain
neo
##isa
##lter
5k
f5
steven
##cts
powerpoint
tft
self
g2
ft
##テル
zol
##act
mwc
381
343
もう
nbapop
408
てある
eds
ace
##room
previous
author
tomtom
il
##ets
hu
financial
☆☆☆
っています
bp
5t
chi
1gb
##hg
fairmont
cross
008
gay
h2
function
##けて
356
also
1b
625
##ータ
##raph
1894
3～5
##ils
i3
334
avenue
##host
による
##bon
##tsu
message
navigation
50g
fintech
h6
##ことを
8cm
##ject
##vas
##firm
credit
##wf
xxxx
form
##nor
##space
huawei
plan
json
sbl
##dc
machine
921
392
wish
##120
##sol
windows7
edward
##ために
development
washington
##nsis
lo
818
##sio
##ym
##bor
planet
##～8
##wt
ieee
gpa
##めて
camp
ann
gm
##tw
##oka
connect
##rss
##work
##atus
wall
chicken
soul
2mm
##times
fa
##ather
##cord
009
##eep
hitachi
gui
harry
##pan
e1
disney
##press
##ーション
wind
386
frigidaire
##tl
liu
hsu
332
basic
von
ev
いた
てきる
スホンサーサイト
learning
##ull
expedia
archives
change
##wei
santa
cut
ins
6gb
turbo
brand
cf1
508
004
return
747
##rip
h1
##nis
##をこ
128gb
##にお
3t
application
しており
emc
rx
##oon
384
quick
412
15058
wilson
wing
chapter
##bug
beyond
##cms
##dar
##oh
zoom
e2
trip
sb
##nba
rcep
342
aspx
ci
080
gc
gnu
める
##count
advanced
dance
dv
##url
##ging
367
8591
am09
shadow
battle
346
##ｉ
##cia
##という
emily
##のてす
##tation
host
ff
techorz
sars
##mini
##mporary
##ering
nc
4200
798
##next
cma
##mbps
##gas
##ift
##dot
##ィ
455
##～17
amana
##りの
426
##ros
ir
00㎡1
##eet
##ible
##↓
710
ˋ▽ˊ
##aka
dcs
iq
##ｖ
l1
##lor
maggie
##011
##iu
588
##～1
830
##gt
1tb
articles
create
##burg
##iki
database
fantasy
##rex
##cam
dlc
dean
##you
hard
path
gaming
victoria
maps
cb
##lee
##itor
overchicstoretvhome
systems
##xt
416
p3
sarah
760
##nan
407
486
x9
install
second
626
##ann
##ph
##rcle
##nic
860
##nar
ec
##とう
768
metro
chocolate
##rian
～4
##table
##しています
skin
##sn
395
mountain
##0mm
inparadise
6m
7x24
ib
4800
##jia
eeworld
creative
g5
g3
357
parker
ecfa
village
からの
18000
sylvia
サーヒス
hbl
##ques
##onsored
##x2
##きます
##v4
##tein
ie6
383
##stack
389
ver
##ads
##baby
sound
bbe
##110
##lone
##uid
ads
022
gundam
351
thinkpad
006
scrum
match
##ave
mems
##470
##oy
##なりました
##talk
glass
lamigo
span
##eme
job
##a5
jay
wade
kde
498
##lace
ocean
tvg
##covery
##r3
##ners
##rea
junior
think
##aine
cover
##ision
##sia
↓↓
##bow
msi
413
458
406
##love
711
801
soft
z2
##pl
456
1840
mobil
mind
##uy
427
nginx
##oi
めた
##rr
6221
##mple
##sson
##ーシてす
371
##nts
91tv
comhd
crv3000
##uard
1868
397
deep
lost
field
gallery
##bia
rate
spf
redis
traction
930
icloud
011
なら
fe
jose
372
##tory
into
sohu
fx
899
379
kicstart2
##hia
すく
##～3
##sit
ra
２４
##walk
##xure
500g
##pact
pacific
xa
natural
carlo
##250
##walker
1850
##can
cto
gigi
516
##サー
pen
##hoo
ob
matlab
##ｂ
##yy
13913459
##iti
mango
##bbs
sense
c5
oxford
##ニア
walker
jennifer
##ola
course
##bre
701
##pus
##rder
lucky
075
##ぁ
ivy
なお
##nia
sotheby
side
##ugh
joy
##orage
##ush
##bat
##dt
364
r9
##2d
##gio
511
country
wear
##lax
##～7
##moon
393
seven
study
411
348
lonzo
8k
##ェ
evolution
##イフ
##kk
gs
kd
##レス
arduino
344
b12
##lux
arpg
##rdon
cook
##x5
dark
five
##als
##ida
とても
sign
362
##ちの
something
20mm
##nda
387
##posted
fresh
tf
1870
422
cam
##mine
##skip
##form
##ssion
education
394
##tee
dyson
stage
##jie
want
##night
epson
pack
あります
##ppy
テリヘル
##█
wd
##eh
##rence
left
##lvin
golden
mhz
discovery
##trix
##n2
loft
##uch
##dra
##sse
speed
～1
1mdb
sorry
welcome
##urn
wave
gaga
##lmer
teddy
##160
トラックハック
せよ
611
##f2016
378
rp
##sha
rar
##あなたに
##きた
840
holiday
##ュー
373
074
##vg
##nos
##rail
gartner
gi
6p
##dium
kit
488
b3
eco
##ろう
20g
sean
##stone
autocad
nu
##np
f16
write
029
m5
##ias
images
atp
##dk
fsm
504
1350
ve
52kb
##xxx
##のに
##cake
414
unit
lim
ru
1v
##ification
published
angela
16g
analytics
ak
##ｑ
##nel
gmt
##icon
again
##₂
##bby
ios11
445
かこさいます
waze
いてす
##ハ
9985
##ust
##ティー
framework
##007
iptv
delete
52sykb
cl
wwdc
027
30cm
##fw
##ての
1389
##xon
brandt
##ses
##dragon
tc
vetements
anne
monte
modern
official
##へて
##ere
##nne
##oud
もちろん
５０
etnews
##a2
##graphy
421
863
##ちゃん
444
##rtex
##てお
l2
##gma
mount
ccd
たと
archive
morning
tan
ddos
e7
##ホ
day4
##ウ
gis
453
its
495
factory
bruce
pg
##ito
ってくたさい
guest
cdma
##lling
536
n3
しかし
3～4
mega
eyes
ro
１３
women
dac
church
##jun
singapore
##facebook
6991
starbucks
##tos
##stin
##shine
zen
##mu
tina
20℃
1893
##たけて
503
465
request
##gence
qt
##っ
1886
347
363
q7
##zzi
diary
##tore
409
##ead
468
cst
##osa
canada
agent
va
##jiang
##ちは
##ーク
##lam
sg
##nix
##sday
##よって
g6
##master
bing
##zl
charlie
１６
8mm
nb40
##ーン
thai
##ルフ
ln284ct
##itz
##2f
bonnie
##food
##lent
originals
##stro
##lts
418
∟∣
##bscribe
children
ntd
yesstyle
##かも
hmv
##tment
d5
2cm
arts
sms
##pn
##я
##いい
topios9
539
lifestyle
virtual
##ague
xz
##deo
muji
024
unt
##nnis
##ᅩ
faq1
1884
396
##ette
fly
64㎡
はしめまして
441
curry
##pop
のこ
release
##←
##◆◆
##cast
073
ありな
500ml
##ews
5c
##stle
ios7
##ima
787
dog
lenovo
##r4
roger
013
cbs
vornado
100m
417
##desk
##クok
##ald
1867
9595
2900
##van
oil
##ｘ
some
break
common
##jy
##lines
g7
twice
419
ella
nano
belle
にこ
##mes
##self
##note
jb
##ことかてきます
benz
##との
##ova
451
save
##wing
##ますのて
kai
りは
##hua
##rect
rainer
##unge
448
##0m
adsl
##かな
guestname
##uma
##kins
##zu
tokichoi
##price
county
##med
##mus
rmk
391
address
vm
えて
openload
##group
##hin
##iginal
amg
urban
##oz
jobs
emi
##public
beautiful
##sch
album
##dden
##bell
jerry
works
hostel
miller
##drive
##rmin
##１０
376
boot
828
##370
##fx
##cm～
1885
##nome
##ctionary
##oman
##lish
##cr
##hm
433
##how
432
francis
xi
c919
b5
evernote
##uc
vga
##3000
coupe
##urg
##cca
##uality
019
6g
れる
multi
##また
##ett
em
hey
##ani
##tax
##rma
inside
than
740
leonnhurt
##jin
ict
れた
bird
notes
200mm
くの
##dical
##lli
result
442
iu
ee
438
smap
gopro
##last
yin
pure
998
32g
けた
5kg
##dan
##rame
mama
##oot
bean
marketing
##hur
2l
bella
sync
xuite
##ground
515
discuz
##getrelax
##ince
##bay
##5s
cj
##イス
gmat
apt
##pass
jing
##rix
c4
rich
##とても
niusnews
##ello
bag
770
##eting
##mobile
１８
culture
015
##のてすか
377
1020
area
##ience
616
details
gp
universal
silver
dit
はお
private
ddd
u11
kanshu
##ified
fung
##nny
dx
##520
tai
475
023
##fr
##lean
3s
##pin
429
##rin
25000
ly
rick
##bility
usb3
banner
##baru
##gion
metal
dt
vdf
1871
karl
qualcomm
bear
1010
oldid
ian
jo
##tors
population
##ernel
1882
mmorpg
##mv
##bike
603
##©
ww
friend
##ager
exhibition
##del
##pods
fpx
structure
##free
##tings
kl
##rley
##copyright
##mma
california
3400
orange
yoga
4l
canmake
honey
##anda
##コメント
595
nikkie
##ルハイト
dhl
publishing
##mall
##gnet
20cm
513
##クセス
##┅
e88
970
##dog
fishbase
##!
##"
###
##$
##%
##&
##'
##(
##)
##*
##+
##,
##-
##.
##/
##:
##;
##<
##=
##>
##?
##@
##[
##\
##]
##^
##_
##{
##|
##}
##~
##£
##¤
##¥
##§
##«
##±
##³
##µ
##·
##¹
##º
##»
##¼
##ß
##æ
##÷
##ø
##đ
##ŋ
##ɔ
##ə
##ɡ
##ʰ
##ˇ
##ˈ
##ˊ
##ˋ
##ˍ
##ː
##˙
##˚
##ˢ
##α
##β
##γ
##δ
##ε
##η
##θ
##ι
##κ
##λ
##μ
##ν
##ο
##π
##ρ
##ς
##σ
##τ
##υ
##φ
##χ
##ψ
##б
##в
##г
##д
##е
##ж
##з
##к
##л
##м
##н
##о
##п
##р
##с
##т
##у
##ф
##х
##ц
##ч
##ш
##ы
##ь
##і
##ا
##ب
##ة
##ت
##د
##ر
##س
##ع
##ل
##م
##ن
##ه
##و
##ي
##۩
##ก
##ง
##น
##ม
##ย
##ร
##อ
##า
##เ
##๑
##་
##ღ
##ᄀ
##ᄁ
##ᄂ
##ᄃ
##ᄅ
##ᄆ
##ᄇ
##ᄈ
##ᄉ
##ᄋ
##ᄌ
##ᄎ
##ᄏ
##ᄐ
##ᄑ
##ᄒ
##ᅢ
##ᅣ
##ᅥ
##ᅦ
##ᅧ
##ᅨ
##ᅪ
##ᅬ
##ᅭ
##ᅮ
##ᅯ
##ᅲ
##ᅳ
##ᅴ
##ᆷ
##ᆸ
##ᆺ
##ᆻ
##ᗜ
##ᵃ
##ᵉ
##ᵍ
##ᵏ
##ᵐ
##ᵒ
##ᵘ
##‖
##„
##†
##•
##‥
##‧
## 
##‰
##′
##″
##‹
##›
##※
##‿
##⁄
##ⁱ
##⁺
##ⁿ
##₁
##₃
##₄
##€
##№
##ⅰ
##ⅱ
##ⅲ
##ⅳ
##ⅴ
##↔
##↗
##↘
##⇒
##∀
##−
##∕
##∙
##√
##∞
##∟
##∠
##∣
##∩
##∮
##∶
##∼
##∽
##≈
##≒
##≡
##≤
##≥
##≦
##≧
##≪
##≫
##⊙
##⋅
##⋈
##⋯
##⌒
##①
##②
##③
##④
##⑤
##⑥
##⑦
##⑧
##⑨
##⑩
##⑴
##⑵
##⑶
##⑷
##⑸
##⒈
##⒉
##⒊
##⒋
##ⓒ
##ⓔ
##ⓘ
##━
##┃
##┆
##┊
##┌
##└
##├
##┣
##═
##║
##╚
##╞
##╠
##╭
##╮
##╯
##╰
##╱
##╳
##▂
##▃
##▅
##▇
##▉
##▋
##▌
##▍
##▎
##□
##▪
##▫
##▬
##△
##▶
##►
##▽
##◇
##◕
##◠
##◢
##◤
##☀
##☕
##☞
##☺
##☼
##♀
##♂
##♠
##♡
##♣
##♦
##♫
##♬
##✈
##✔
##✕
##✖
##✦
##✨
##✪
##✰
##✿
##❀
##➜
##➤
##⦿
##、
##。
##〃
##々
##〇
##〈
##〉
##《
##》
##「
##」
##『
##』
##【
##】
##〓
##〔
##〕
##〖
##〗
##〜
##〝
##〞
##ぃ
##ぇ
##ぬ
##ふ
##ほ
##む
##ゃ
##ゅ
##ゆ
##ょ
##゜
##ゝ
##ァ
##ゥ
##エ
##ォ
##ケ
##サ
##セ
##ソ
##ッ
##ニ
##ヌ
##ネ
##ノ
##ヘ
##モ
##ャ
##ヤ
##ュ
##ユ
##ョ
##ヨ
##ワ
##ヲ
##・
##ヽ
##ㄅ
##ㄆ
##ㄇ
##ㄉ
##ㄋ
##ㄌ
##ㄍ
##ㄎ
##ㄏ
##ㄒ
##ㄚ
##ㄛ
##ㄞ
##ㄟ
##ㄢ
##ㄤ
##ㄥ
##ㄧ
##ㄨ
##ㆍ
##㈦
##㊣
##㗎
##一
##丁
##七
##万
##丈
##三
##上
##下
##不
##与
##丐
##丑
##专
##且
##丕
##世
##丘
##丙
##业
##丛
##东
##丝
##丞
##丟
##両
##丢
##两
##严
##並
##丧
##丨
##个
##丫
##中
##丰
##串
##临
##丶
##丸
##丹
##为
##主
##丼
##丽
##举
##丿
##乂
##乃
##久
##么
##义
##之
##乌
##乍
##乎
##乏
##乐
##乒
##乓
##乔
##乖
##乗
##乘
##乙
##乜
##九
##乞
##也
##习
##乡
##书
##乩
##买
##乱
##乳
##乾
##亀
##亂
##了
##予
##争
##事
##二
##于
##亏
##云
##互
##五
##井
##亘
##亙
##亚
##些
##亜
##亞
##亟
##亡
##亢
##交
##亥
##亦
##产
##亨
##亩
##享
##京
##亭
##亮
##亲
##亳
##亵
##人
##亿
##什
##仁
##仃
##仄
##仅
##仆
##仇
##今
##介
##仍
##从
##仏
##仑
##仓
##仔
##仕
##他
##仗
##付
##仙
##仝
##仞
##仟
##代
##令
##以
##仨
##仪
##们
##仮
##仰
##仲
##件
##价
##任
##份
##仿
##企
##伉
##伊
##伍
##伎
##伏
##伐
##休
##伕
##众
##优
##伙
##会
##伝
##伞
##伟
##传
##伢
##伤
##伦
##伪
##伫
##伯
##估
##伴
##伶
##伸
##伺
##似
##伽
##佃
##但
##佇
##佈
##位
##低
##住
##佐
##佑
##体
##佔
##何
##佗
##佘
##余
##佚
##佛
##作
##佝
##佞
##佟
##你
##佢
##佣
##佤
##佥
##佩
##佬
##佯
##佰
##佳
##併
##佶
##佻
##佼
##使
##侃
##侄
##來
##侈
##例
##侍
##侏
##侑
##侖
##侗
##供
##依
##侠
##価
##侣
##侥
##侦
##侧
##侨
##侬
##侮
##侯
##侵
##侶
##侷
##便
##係
##促
##俄
##俊
##俎
##俏
##俐
##俑
##俗
##俘
##俚
##保
##俞
##俟
##俠
##信
##俨
##俩
##俪
##俬
##俭
##修
##俯
##俱
##俳
##俸
##俺
##俾
##倆
##倉
##個
##倌
##倍
##倏
##們
##倒
##倔
##倖
##倘
##候
##倚
##倜
##借
##倡
##値
##倦
##倩
##倪
##倫
##倬
##倭
##倶
##债
##值
##倾
##偃
##假
##偈
##偉
##偌
##偎
##偏
##偕
##做
##停
##健
##側
##偵
##偶
##偷
##偻
##偽
##偿
##傀
##傅
##傍
##傑
##傘
##備
##傚
##傢
##傣
##傥
##储
##傩
##催
##傭
##傲
##傳
##債
##傷
##傻
##傾
##僅
##働
##像
##僑
##僕
##僖
##僚
##僥
##僧
##僭
##僮
##僱
##僵
##價
##僻
##儀
##儂
##億
##儆
##儉
##儋
##儒
##儕
##儘
##償
##儡
##優
##儲
##儷
##儼
##儿
##兀
##允
##元
##兄
##充
##兆
##兇
##先
##光
##克
##兌
##免
##児
##兑
##兒
##兔
##兖
##党
##兜
##兢
##入
##內
##全
##兩
##八
##公
##六
##兮
##兰
##共
##兲
##关
##兴
##兵
##其
##具
##典
##兹
##养
##兼
##兽
##冀
##内
##円
##冇
##冈
##冉
##冊
##册
##再
##冏
##冒
##冕
##冗
##写
##军
##农
##冠
##冢
##冤
##冥
##冨
##冪
##冬
##冯
##冰
##冲
##决
##况
##冶
##冷
##冻
##冼
##冽
##冾
##净
##凄
##准
##凇
##凈
##凉
##凋
##凌
##凍
##减
##凑
##凛
##凜
##凝
##几
##凡
##凤
##処
##凪
##凭
##凯
##凰
##凱
##凳
##凶
##凸
##凹
##出
##击
##函
##凿
##刀
##刁
##刃
##分
##切
##刈
##刊
##刍
##刎
##刑
##划
##列
##刘
##则
##刚
##创
##初
##删
##判
##別
##刨
##利
##刪
##别
##刮
##到
##制
##刷
##券
##刹
##刺
##刻
##刽
##剁
##剂
##剃
##則
##剉
##削
##剋
##剌
##前
##剎
##剐
##剑
##剔
##剖
##剛
##剜
##剝
##剣
##剤
##剥
##剧
##剩
##剪
##副
##割
##創
##剷
##剽
##剿
##劃
##劇
##劈
##劉
##劊
##劍
##劏
##劑
##力
##劝
##办
##功
##加
##务
##劣
##动
##助
##努
##劫
##劭
##励
##劲
##劳
##労
##劵
##効
##劾
##势
##勁
##勃
##勇
##勉
##勋
##勐
##勒
##動
##勖
##勘
##務
##勛
##勝
##勞
##募
##勢
##勤
##勧
##勳
##勵
##勸
##勺
##勻
##勾
##勿
##匀
##包
##匆
##匈
##匍
##匐
##匕
##化
##北
##匙
##匝
##匠
##匡
##匣
##匪
##匮
##匯
##匱
##匹
##区
##医
##匾
##匿
##區
##十
##千
##卅
##升
##午
##卉
##半
##卍
##华
##协
##卑
##卒
##卓
##協
##单
##卖
##南
##単
##博
##卜
##卞
##卟
##占
##卡
##卢
##卤
##卦
##卧
##卫
##卮
##卯
##印
##危
##即
##却
##卵
##卷
##卸
##卻
##卿
##厂
##厄
##厅
##历
##厉
##压
##厌
##厕
##厘
##厚
##厝
##原
##厢
##厥
##厦
##厨
##厩
##厭
##厮
##厲
##厳
##去
##县
##叁
##参
##參
##又
##叉
##及
##友
##双
##反
##収
##发
##叔
##取
##受
##变
##叙
##叛
##叟
##叠
##叡
##叢
##口
##古
##句
##另
##叨
##叩
##只
##叫
##召
##叭
##叮
##可
##台
##叱
##史
##右
##叵
##叶
##号
##司
##叹
##叻
##叼
##叽
##吁
##吃
##各
##吆
##合
##吉
##吊
##吋
##同
##名
##后
##吏
##吐
##向
##吒
##吓
##吕
##吖
##吗
##君
##吝
##吞
##吟
##吠
##吡
##否
##吧
##吨
##吩
##含
##听
##吭
##吮
##启
##吱
##吳
##吴
##吵
##吶
##吸
##吹
##吻
##吼
##吽
##吾
##呀
##呂
##呃
##呆
##呈
##告
##呋
##呎
##呐
##呓
##呕
##呗
##员
##呛
##呜
##呢
##呤
##呦
##周
##呱
##呲
##味
##呵
##呷
##呸
##呻
##呼
##命
##咀
##咁
##咂
##咄
##咆
##咋
##和
##咎
##咏
##咐
##咒
##咔
##咕
##咖
##咗
##咘
##咙
##咚
##咛
##咣
##咤
##咦
##咧
##咨
##咩
##咪
##咫
##咬
##咭
##咯
##咱
##咲
##咳
##咸
##咻
##咽
##咿
##哀
##品
##哂
##哄
##哆
##哇
##哈
##哉
##哋
##哌
##响
##哎
##哏
##哐
##哑
##哒
##哔
##哗
##哟
##員
##哥
##哦
##哧
##哨
##哩
##哪
##哭
##哮
##哲
##哺
##哼
##哽
##唁
##唄
##唆
##唇
##唉
##唏
##唐
##唑
##唔
##唠
##唤
##唧
##唬
##售
##唯
##唰
##唱
##唳
##唷
##唸
##唾
##啃
##啄
##商
##啉
##啊
##問
##啓
##啕
##啖
##啜
##啞
##啟
##啡
##啤
##啥
##啦
##啧
##啪
##啫
##啬
##啮
##啰
##啱
##啲
##啵
##啶
##啷
##啸
##啻
##啼
##啾
##喀
##喂
##喃
##善
##喆
##喇
##喉
##喊
##喋
##喎
##喏
##喔
##喘
##喙
##喚
##喜
##喝
##喟
##喧
##喪
##喫
##喬
##單
##喰
##喱
##喲
##喳
##喵
##営
##喷
##喹
##喺
##喻
##喽
##嗅
##嗆
##嗇
##嗎
##嗑
##嗒
##嗓
##嗔
##嗖
##嗚
##嗜
##嗝
##嗟
##嗡
##嗣
##嗤
##嗦
##嗨
##嗪
##嗬
##嗯
##嗰
##嗲
##嗳
##嗶
##嗷
##嗽
##嘀
##嘅
##嘆
##嘈
##嘉
##嘌
##嘍
##嘎
##嘔
##嘖
##嘗
##嘘
##嘚
##嘛
##嘜
##嘞
##嘟
##嘢
##嘣
##嘤
##嘧
##嘩
##嘭
##嘮
##嘯
##嘰
##嘱
##嘲
##嘴
##嘶
##嘸
##嘹
##嘻
##嘿
##噁
##噌
##噎
##噓
##噔
##噗
##噙
##噜
##噠
##噢
##噤
##器
##噩
##噪
##噬
##噱
##噴
##噶
##噸
##噹
##噻
##噼
##嚀
##嚇
##嚎
##嚏
##嚐
##嚓
##嚕
##嚟
##嚣
##嚥
##嚨
##嚮
##嚴
##嚷
##嚼
##囂
##囉
##囊
##囍
##囑
##囔
##囗
##囚
##四
##囝
##回
##囟
##因
##囡
##团
##団
##囤
##囧
##囪
##囫
##园
##困
##囱
##囲
##図
##围
##囹
##固
##国
##图
##囿
##圃
##圄
##圆
##圈
##國
##圍
##圏
##園
##圓
##圖
##團
##圜
##土
##圣
##圧
##在
##圩
##圭
##地
##圳
##场
##圻
##圾
##址
##坂
##均
##坊
##坍
##坎
##坏
##坐
##坑
##块
##坚
##坛
##坝
##坞
##坟
##坠
##坡
##坤
##坦
##坨
##坪
##坯
##坳
##坵
##坷
##垂
##垃
##垄
##型
##垒
##垚
##垛
##垠
##垢
##垣
##垦
##垩
##垫
##垭
##垮
##垵
##埂
##埃
##埋
##城
##埔
##埕
##埗
##域
##埠
##埤
##埵
##執
##埸
##培
##基
##埼
##堀
##堂
##堃
##堅
##堆
##堇
##堑
##堕
##堙
##堡
##堤
##堪
##堯
##堰
##報
##場
##堵
##堺
##堿
##塊
##塌
##塑
##塔
##塗
##塘
##塚
##塞
##塢
##塩
##填
##塬
##塭
##塵
##塾
##墀
##境
##墅
##墉
##墊
##墒
##墓
##増
##墘
##墙
##墜
##增
##墟
##墨
##墩
##墮
##墳
##墻
##墾
##壁
##壅
##壆
##壇
##壊
##壑
##壓
##壕
##壘
##壞
##壟
##壢
##壤
##壩
##士
##壬
##壮
##壯
##声
##売
##壳
##壶
##壹
##壺
##壽
##处
##备
##変
##复
##夏
##夔
##夕
##外
##夙
##多
##夜
##够
##夠
##夢
##夥
##大
##天
##太
##夫
##夭
##央
##夯
##失
##头
##夷
##夸
##夹
##夺
##夾
##奂
##奄
##奇
##奈
##奉
##奋
##奎
##奏
##奐
##契
##奔
##奕
##奖
##套
##奘
##奚
##奠
##奢
##奥
##奧
##奪
##奬
##奮
##女
##奴
##奶
##奸
##她
##好
##如
##妃
##妄
##妆
##妇
##妈
##妊
##妍
##妒
##妓
##妖
##妘
##妙
##妝
##妞
##妣
##妤
##妥
##妨
##妩
##妪
##妮
##妲
##妳
##妹
##妻
##妾
##姆
##姉
##姊
##始
##姍
##姐
##姑
##姒
##姓
##委
##姗
##姚
##姜
##姝
##姣
##姥
##姦
##姨
##姪
##姫
##姬
##姹
##姻
##姿
##威
##娃
##娄
##娅
##娆
##娇
##娉
##娑
##娓
##娘
##娛
##娜
##娟
##娠
##娣
##娥
##娩
##娱
##娲
##娴
##娶
##娼
##婀
##婁
##婆
##婉
##婊
##婕
##婚
##婢
##婦
##婧
##婪
##婭
##婴
##婵
##婶
##婷
##婺
##婿
##媒
##媚
##媛
##媞
##媧
##媲
##媳
##媽
##媾
##嫁
##嫂
##嫉
##嫌
##嫑
##嫔
##嫖
##嫘
##嫚
##嫡
##嫣
##嫦
##嫩
##嫲
##嫵
##嫻
##嬅
##嬉
##嬌
##嬗
##嬛
##嬢
##嬤
##嬪
##嬰
##嬴
##嬷
##嬸
##嬿
##孀
##孃
##子
##孑
##孔
##孕
##孖
##字
##存
##孙
##孚
##孛
##孜
##孝
##孟
##孢
##季
##孤
##学
##孩
##孪
##孫
##孬
##孰
##孱
##孳
##孵
##學
##孺
##孽
##孿
##宁
##它
##宅
##宇
##守
##安
##宋
##完
##宏
##宓
##宕
##宗
##官
##宙
##定
##宛
##宜
##宝
##实
##実
##宠
##审
##客
##宣
##室
##宥
##宦
##宪
##宫
##宮
##宰
##害
##宴
##宵
##家
##宸
##容
##宽
##宾
##宿
##寂
##寄
##寅
##密
##寇
##富
##寐
##寒
##寓
##寛
##寝
##寞
##察
##寡
##寢
##寥
##實
##寧
##寨
##審
##寫
##寬
##寮
##寰
##寵
##寶
##寸
##对
##寺
##寻
##导
##対
##寿
##封
##専
##射
##将
##將
##專
##尉
##尊
##尋
##對
##導
##小
##少
##尔
##尕
##尖
##尘
##尚
##尝
##尤
##尧
##尬
##就
##尴
##尷
##尸
##尹
##尺
##尻
##尼
##尽
##尾
##尿
##局
##屁
##层
##屄
##居
##屆
##屈
##屉
##届
##屋
##屌
##屍
##屎
##屏
##屐
##屑
##展
##屜
##属
##屠
##屡
##屢
##層
##履
##屬
##屯
##山
##屹
##屿
##岀
##岁
##岂
##岌
##岐
##岑
##岔
##岖
##岗
##岘
##岙
##岚
##岛
##岡
##岩
##岫
##岬
##岭
##岱
##岳
##岷
##岸
##峇
##峋
##峒
##峙
##峡
##峤
##峥
##峦
##峨
##峪
##峭
##峯
##峰
##峴
##島
##峻
##峽
##崁
##崂
##崆
##崇
##崎
##崑
##崔
##崖
##崗
##崙
##崛
##崧
##崩
##崭
##崴
##崽
##嵇
##嵊
##嵋
##嵌
##嵐
##嵘
##嵩
##嵬
##嵯
##嶂
##嶄
##嶇
##嶋
##嶙
##嶺
##嶼
##嶽
##巅
##巍
##巒
##巔
##巖
##川
##州
##巡
##巢
##工
##左
##巧
##巨
##巩
##巫
##差
##己
##已
##巳
##巴
##巷
##巻
##巽
##巾
##巿
##币
##市
##布
##帅
##帆
##师
##希
##帐
##帑
##帕
##帖
##帘
##帚
##帛
##帜
##帝
##帥
##带
##帧
##師
##席
##帮
##帯
##帰
##帳
##帶
##帷
##常
##帼
##帽
##幀
##幂
##幄
##幅
##幌
##幔
##幕
##幟
##幡
##幢
##幣
##幫
##干
##平
##年
##并
##幸
##幹
##幺
##幻
##幼
##幽
##幾
##广
##庁
##広
##庄
##庆
##庇
##床
##序
##庐
##库
##应
##底
##庖
##店
##庙
##庚
##府
##庞
##废
##庠
##度
##座
##庫
##庭
##庵
##庶
##康
##庸
##庹
##庾
##廁
##廂
##廃
##廈
##廉
##廊
##廓
##廖
##廚
##廝
##廟
##廠
##廢
##廣
##廬
##廳
##延
##廷
##建
##廿
##开
##弁
##异
##弃
##弄
##弈
##弊
##弋
##式
##弑
##弒
##弓
##弔
##引
##弗
##弘
##弛
##弟
##张
##弥
##弦
##弧
##弩
##弭
##弯
##弱
##張
##強
##弹
##强
##弼
##弾
##彅
##彆
##彈
##彌
##彎
##归
##当
##录
##彗
##彙
##彝
##形
##彤
##彥
##彦
##彧
##彩
##彪
##彫
##彬
##彭
##彰
##影
##彷
##役
##彻
##彼
##彿
##往
##征
##径
##待
##徇
##很
##徉
##徊
##律
##後
##徐
##徑
##徒
##従
##徕
##得
##徘
##徙
##徜
##從
##徠
##御
##徨
##復
##循
##徬
##微
##徳
##徴
##徵
##德
##徹
##徼
##徽
##心
##必
##忆
##忌
##忍
##忏
##忐
##忑
##忒
##忖
##志
##忘
##忙
##応
##忠
##忡
##忤
##忧
##忪
##快
##忱
##念
##忻
##忽
##忿
##怀
##态
##怂
##怅
##怆
##怎
##怏
##怒
##怔
##怕
##怖
##怙
##怜
##思
##怠
##怡
##急
##怦
##性
##怨
##怪
##怯
##怵
##总
##怼
##恁
##恃
##恆
##恋
##恍
##恐
##恒
##恕
##恙
##恚
##恢
##恣
##恤
##恥
##恨
##恩
##恪
##恫
##恬
##恭
##息
##恰
##恳
##恵
##恶
##恸
##恺
##恻
##恼
##恿
##悄
##悅
##悉
##悌
##悍
##悔
##悖
##悚
##悟
##悠
##患
##悦
##您
##悩
##悪
##悬
##悯
##悱
##悲
##悴
##悵
##悶
##悸
##悻
##悼
##悽
##情
##惆
##惇
##惊
##惋
##惑
##惕
##惘
##惚
##惜
##惟
##惠
##惡
##惦
##惧
##惨
##惩
##惫
##惬
##惭
##惮
##惯
##惰
##惱
##想
##惴
##惶
##惹
##惺
##愁
##愆
##愈
##愉
##愍
##意
##愕
##愚
##愛
##愜
##感
##愣
##愤
##愧
##愫
##愷
##愿
##慄
##慈
##態
##慌
##慎
##慑
##慕
##慘
##慚
##慟
##慢
##慣
##慧
##慨
##慫
##慮
##慰
##慳
##慵
##慶
##慷
##慾
##憂
##憊
##憋
##憎
##憐
##憑
##憔
##憚
##憤
##憧
##憨
##憩
##憫
##憬
##憲
##憶
##憾
##懂
##懇
##懈
##應
##懊
##懋
##懑
##懒
##懦
##懲
##懵
##懶
##懷
##懸
##懺
##懼
##懾
##懿
##戀
##戈
##戊
##戌
##戍
##戎
##戏
##成
##我
##戒
##戕
##或
##战
##戚
##戛
##戟
##戡
##戦
##截
##戬
##戮
##戰
##戲
##戳
##戴
##戶
##户
##戸
##戻
##戾
##房
##所
##扁
##扇
##扈
##扉
##手
##才
##扎
##扑
##扒
##打
##扔
##払
##托
##扛
##扣
##扦
##执
##扩
##扪
##扫
##扬
##扭
##扮
##扯
##扰
##扱
##扳
##扶
##批
##扼
##找
##承
##技
##抄
##抉
##把
##抑
##抒
##抓
##投
##抖
##抗
##折
##抚
##抛
##抜
##択
##抟
##抠
##抡
##抢
##护
##报
##抨
##披
##抬
##抱
##抵
##抹
##押
##抽
##抿
##拂
##拄
##担
##拆
##拇
##拈
##拉
##拋
##拌
##拍
##拎
##拐
##拒
##拓
##拔
##拖
##拗
##拘
##拙
##拚
##招
##拜
##拟
##拡
##拢
##拣
##拥
##拦
##拧
##拨
##择
##括
##拭
##拮
##拯
##拱
##拳
##拴
##拷
##拼
##拽
##拾
##拿
##持
##挂
##指
##挈
##按
##挎
##挑
##挖
##挙
##挚
##挛
##挝
##挞
##挟
##挠
##挡
##挣
##挤
##挥
##挨
##挪
##挫
##振
##挲
##挹
##挺
##挽
##挾
##捂
##捅
##捆
##捉
##捋
##捌
##捍
##捎
##捏
##捐
##捕
##捞
##损
##捡
##换
##捣
##捧
##捨
##捩
##据
##捱
##捲
##捶
##捷
##捺
##捻
##掀
##掂
##掃
##掇
##授
##掉
##掌
##掏
##掐
##排
##掖
##掘
##掙
##掛
##掠
##採
##探
##掣
##接
##控
##推
##掩
##措
##掬
##掰
##掲
##掳
##掴
##掷
##掸
##掺
##揀
##揃
##揄
##揆
##揉
##揍
##描
##提
##插
##揖
##揚
##換
##握
##揣
##揩
##揪
##揭
##揮
##援
##揶
##揸
##揹
##揽
##搀
##搁
##搂
##搅
##損
##搏
##搐
##搓
##搔
##搖
##搗
##搜
##搞
##搡
##搪
##搬
##搭
##搵
##搶
##携
##搽
##摀
##摁
##摄
##摆
##摇
##摈
##摊
##摒
##摔
##摘
##摞
##摟
##摧
##摩
##摯
##摳
##摸
##摹
##摺
##摻
##撂
##撃
##撅
##撇
##撈
##撐
##撑
##撒
##撓
##撕
##撚
##撞
##撤
##撥
##撩
##撫
##撬
##播
##撮
##撰
##撲
##撵
##撷
##撸
##撻
##撼
##撿
##擀
##擁
##擂
##擄
##擅
##擇
##擊
##擋
##操
##擎
##擒
##擔
##擘
##據
##擞
##擠
##擡
##擢
##擦
##擬
##擰
##擱
##擲
##擴
##擷
##擺
##擼
##擾
##攀
##攏
##攒
##攔
##攘
##攙
##攜
##攝
##攞
##攢
##攣
##攤
##攥
##攪
##攫
##攬
##支
##收
##攸
##改
##攻
##放
##政
##故
##效
##敌
##敍
##敎
##敏
##救
##敕
##敖
##敗
##敘
##教
##敛
##敝
##敞
##敢
##散
##敦
##敬
##数
##敲
##整
##敵
##敷
##數
##斂
##斃
##文
##斋
##斌
##斎
##斐
##斑
##斓
##斗
##料
##斛
##斜
##斟
##斡
##斤
##斥
##斧
##斩
##斫
##斬
##断
##斯
##新
##斷
##方
##於
##施
##旁
##旃
##旅
##旋
##旌
##旎
##族
##旖
##旗
##无
##既
##日
##旦
##旧
##旨
##早
##旬
##旭
##旮
##旱
##时
##旷
##旺
##旻
##昀
##昂
##昆
##昇
##昉
##昊
##昌
##明
##昏
##易
##昔
##昕
##昙
##星
##映
##春
##昧
##昨
##昭
##是
##昱
##昴
##昵
##昶
##昼
##显
##晁
##時
##晃
##晉
##晋
##晌
##晏
##晒
##晓
##晔
##晕
##晖
##晗
##晚
##晝
##晞
##晟
##晤
##晦
##晨
##晩
##普
##景
##晰
##晴
##晶
##晷
##智
##晾
##暂
##暄
##暇
##暈
##暉
##暌
##暐
##暑
##暖
##暗
##暝
##暢
##暧
##暨
##暫
##暮
##暱
##暴
##暸
##暹
##曄
##曆
##曇
##曉
##曖
##曙
##曜
##曝
##曠
##曦
##曬
##曰
##曲
##曳
##更
##書
##曹
##曼
##曾
##替
##最
##會
##月
##有
##朋
##服
##朐
##朔
##朕
##朗
##望
##朝
##期
##朦
##朧
##木
##未
##末
##本
##札
##朮
##术
##朱
##朴
##朵
##机
##朽
##杀
##杂
##权
##杆
##杈
##杉
##李
##杏
##材
##村
##杓
##杖
##杜
##杞
##束
##杠
##条
##来
##杨
##杭
##杯
##杰
##東
##杳
##杵
##杷
##杼
##松
##板
##极
##构
##枇
##枉
##枋
##析
##枕
##林
##枚
##果
##枝
##枢
##枣
##枪
##枫
##枭
##枯
##枰
##枱
##枳
##架
##枷
##枸
##柄
##柏
##某
##柑
##柒
##染
##柔
##柘
##柚
##柜
##柞
##柠
##柢
##查
##柩
##柬
##柯
##柱
##柳
##柴
##柵
##査
##柿
##栀
##栃
##栄
##栅
##标
##栈
##栉
##栋
##栎
##栏
##树
##栓
##栖
##栗
##校
##栩
##株
##样
##核
##根
##格
##栽
##栾
##桀
##桁
##桂
##桃
##桅
##框
##案
##桉
##桌
##桎
##桐
##桑
##桓
##桔
##桜
##桠
##桡
##桢
##档
##桥
##桦
##桧
##桨
##桩
##桶
##桿
##梁
##梅
##梆
##梏
##梓
##梗
##條
##梟
##梢
##梦
##梧
##梨
##梭
##梯
##械
##梳
##梵
##梶
##检
##棂
##棄
##棉
##棋
##棍
##棒
##棕
##棗
##棘
##棚
##棟
##棠
##棣
##棧
##森
##棱
##棲
##棵
##棹
##棺
##椁
##椅
##椋
##植
##椎
##椒
##検
##椪
##椭
##椰
##椹
##椽
##椿
##楂
##楊
##楓
##楔
##楚
##楝
##楞
##楠
##楣
##楨
##楫
##業
##楮
##極
##楷
##楸
##楹
##楼
##楽
##概
##榄
##榆
##榈
##榉
##榔
##榕
##榖
##榛
##榜
##榨
##榫
##榭
##榮
##榱
##榴
##榷
##榻
##槁
##槃
##構
##槌
##槍
##槎
##槐
##槓
##様
##槛
##槟
##槤
##槭
##槲
##槳
##槻
##槽
##槿
##樁
##樂
##樊
##樑
##樓
##標
##樞
##樟
##模
##樣
##権
##横
##樫
##樯
##樱
##樵
##樸
##樹
##樺
##樽
##樾
##橄
##橇
##橋
##橐
##橘
##橙
##機
##橡
##橢
##橫
##橱
##橹
##橼
##檀
##檄
##檎
##檐
##檔
##檗
##檜
##檢
##檬
##檯
##檳
##檸
##檻
##櫃
##櫚
##櫛
##櫥
##櫸
##櫻
##欄
##權
##欒
##欖
##欠
##次
##欢
##欣
##欧
##欲
##欸
##欺
##欽
##款
##歆
##歇
##歉
##歌
##歎
##歐
##歓
##歙
##歛
##歡
##止
##正
##此
##步
##武
##歧
##歩
##歪
##歯
##歲
##歳
##歴
##歷
##歸
##歹
##死
##歼
##殁
##殃
##殆
##殇
##殉
##殊
##残
##殒
##殓
##殖
##殘
##殞
##殡
##殤
##殭
##殯
##殲
##殴
##段
##殷
##殺
##殼
##殿
##毀
##毁
##毂
##毅
##毆
##毋
##母
##毎
##每
##毒
##毓
##比
##毕
##毗
##毘
##毙
##毛
##毡
##毫
##毯
##毽
##氈
##氏
##氐
##民
##氓
##气
##氖
##気
##氙
##氛
##氟
##氡
##氢
##氣
##氤
##氦
##氧
##氨
##氪
##氫
##氮
##氯
##氰
##氲
##水
##氷
##永
##氹
##氾
##汀
##汁
##求
##汆
##汇
##汉
##汎
##汐
##汕
##汗
##汙
##汛
##汝
##汞
##江
##池
##污
##汤
##汨
##汩
##汪
##汰
##汲
##汴
##汶
##汹
##決
##汽
##汾
##沁
##沂
##沃
##沅
##沈
##沉
##沌
##沏
##沐
##沒
##沓
##沖
##沙
##沛
##沟
##没
##沢
##沣
##沥
##沦
##沧
##沪
##沫
##沭
##沮
##沱
##河
##沸
##油
##治
##沼
##沽
##沾
##沿
##況
##泄
##泉
##泊
##泌
##泓
##法
##泗
##泛
##泞
##泠
##泡
##波
##泣
##泥
##注
##泪
##泫
##泮
##泯
##泰
##泱
##泳
##泵
##泷
##泸
##泻
##泼
##泽
##泾
##洁
##洄
##洋
##洒
##洗
##洙
##洛
##洞
##津
##洩
##洪
##洮
##洱
##洲
##洵
##洶
##洸
##洹
##活
##洼
##洽
##派
##流
##浃
##浄
##浅
##浆
##浇
##浊
##测
##济
##浏
##浑
##浒
##浓
##浔
##浙
##浚
##浜
##浣
##浦
##浩
##浪
##浬
##浮
##浯
##浴
##海
##浸
##涂
##涅
##涇
##消
##涉
##涌
##涎
##涓
##涔
##涕
##涙
##涛
##涝
##涞
##涟
##涠
##涡
##涣
##涤
##润
##涧
##涨
##涩
##涪
##涮
##涯
##液
##涵
##涸
##涼
##涿
##淀
##淄
##淅
##淆
##淇
##淋
##淌
##淑
##淒
##淖
##淘
##淙
##淚
##淞
##淡
##淤
##淦
##淨
##淩
##淪
##淫
##淬
##淮
##深
##淳
##淵
##混
##淹
##淺
##添
##淼
##清
##済
##渉
##渊
##渋
##渍
##渎
##渐
##渔
##渗
##渙
##渚
##減
##渝
##渠
##渡
##渣
##渤
##渥
##渦
##温
##測
##渭
##港
##渲
##渴
##游
##渺
##渾
##湃
##湄
##湊
##湍
##湖
##湘
##湛
##湟
##湧
##湫
##湮
##湯
##湳
##湾
##湿
##満
##溃
##溅
##溉
##溏
##源
##準
##溜
##溝
##溟
##溢
##溥
##溧
##溪
##溫
##溯
##溱
##溴
##溶
##溺
##溼
##滁
##滂
##滄
##滅
##滇
##滋
##滌
##滑
##滓
##滔
##滕
##滙
##滚
##滝
##滞
##滟
##满
##滢
##滤
##滥
##滦
##滨
##滩
##滬
##滯
##滲
##滴
##滷
##滸
##滾
##滿
##漁
##漂
##漆
##漉
##漏
##漓
##演
##漕
##漠
##漢
##漣
##漩
##漪
##漫
##漬
##漯
##漱
##漲
##漳
##漸
##漾
##漿
##潆
##潇
##潋
##潍
##潑
##潔
##潘
##潛
##潜
##潞
##潟
##潢
##潤
##潦
##潧
##潭
##潮
##潰
##潴
##潸
##潺
##潼
##澀
##澄
##澆
##澈
##澍
##澎
##澗
##澜
##澡
##澤
##澧
##澱
##澳
##澹
##激
##濁
##濂
##濃
##濑
##濒
##濕
##濘
##濛
##濟
##濠
##濡
##濤
##濫
##濬
##濮
##濯
##濱
##濺
##濾
##瀅
##瀆
##瀉
##瀋
##瀏
##瀑
##瀕
##瀘
##瀚
##瀛
##瀝
##瀞
##瀟
##瀧
##瀨
##瀬
##瀰
##瀾
##灌
##灏
##灑
##灘
##灝
##灞
##灣
##火
##灬
##灭
##灯
##灰
##灵
##灶
##灸
##灼
##災
##灾
##灿
##炀
##炁
##炅
##炉
##炊
##炎
##炒
##炔
##炕
##炖
##炙
##炜
##炫
##炬
##炭
##炮
##炯
##炳
##炷
##炸
##点
##為
##炼
##炽
##烁
##烂
##烃
##烈
##烊
##烏
##烘
##烙
##烛
##烟
##烤
##烦
##烧
##烨
##烩
##烫
##烬
##热
##烯
##烷
##烹
##烽
##焉
##焊
##焕
##焖
##焗
##焘
##焙
##焚
##焜
##無
##焦
##焯
##焰
##焱
##然
##焼
##煅
##煉
##煊
##煌
##煎
##煒
##煖
##煙
##煜
##煞
##煤
##煥
##煦
##照
##煨
##煩
##煮
##煲
##煸
##煽
##熄
##熊
##熏
##熒
##熔
##熙
##熟
##熠
##熨
##熬
##熱
##熵
##熹
##熾
##燁
##燃
##燄
##燈
##燉
##燊
##燎
##燒
##燔
##燕
##燙
##燜
##營
##燥
##燦
##燧
##燭
##燮
##燴
##燻
##燼
##燿
##爆
##爍
##爐
##爛
##爪
##爬
##爭
##爰
##爱
##爲
##爵
##父
##爷
##爸
##爹
##爺
##爻
##爽
##爾
##牆
##片
##版
##牌
##牍
##牒
##牙
##牛
##牝
##牟
##牠
##牡
##牢
##牦
##牧
##物
##牯
##牲
##牴
##牵
##特
##牺
##牽
##犀
##犁
##犄
##犊
##犍
##犒
##犢
##犧
##犬
##犯
##状
##犷
##犸
##犹
##狀
##狂
##狄
##狈
##狎
##狐
##狒
##狗
##狙
##狞
##狠
##狡
##狩
##独
##狭
##狮
##狰
##狱
##狸
##狹
##狼
##狽
##猎
##猕
##猖
##猗
##猙
##猛
##猜
##猝
##猥
##猩
##猪
##猫
##猬
##献
##猴
##猶
##猷
##猾
##猿
##獄
##獅
##獎
##獐
##獒
##獗
##獠
##獣
##獨
##獭
##獰
##獲
##獵
##獷
##獸
##獺
##獻
##獼
##獾
##玄
##率
##玉
##王
##玑
##玖
##玛
##玟
##玠
##玥
##玩
##玫
##玮
##环
##现
##玲
##玳
##玷
##玺
##玻
##珀
##珂
##珅
##珈
##珉
##珊
##珍
##珏
##珐
##珑
##珙
##珞
##珠
##珣
##珥
##珩
##珪
##班
##珮
##珲
##珺
##現
##球
##琅
##理
##琇
##琉
##琊
##琍
##琏
##琐
##琛
##琢
##琥
##琦
##琨
##琪
##琬
##琮
##琰
##琲
##琳
##琴
##琵
##琶
##琺
##琼
##瑀
##瑁
##瑄
##瑋
##瑕
##瑗
##瑙
##瑚
##瑛
##瑜
##瑞
##瑟
##瑠
##瑣
##瑤
##瑩
##瑪
##瑯
##瑰
##瑶
##瑾
##璀
##璁
##璃
##璇
##璉
##璋
##璎
##璐
##璜
##璞
##璟
##璧
##璨
##環
##璽
##璿
##瓊
##瓏
##瓒
##瓜
##瓢
##瓣
##瓤
##瓦
##瓮
##瓯
##瓴
##瓶
##瓷
##甄
##甌
##甕
##甘
##甙
##甚
##甜
##生
##產
##産
##甥
##甦
##用
##甩
##甫
##甬
##甭
##甯
##田
##由
##甲
##申
##电
##男
##甸
##町
##画
##甾
##畀
##畅
##界
##畏
##畑
##畔
##留
##畜
##畝
##畢
##略
##畦
##番
##畫
##異
##畲
##畳
##畴
##當
##畸
##畹
##畿
##疆
##疇
##疊
##疏
##疑
##疔
##疖
##疗
##疙
##疚
##疝
##疟
##疡
##疣
##疤
##疥
##疫
##疮
##疯
##疱
##疲
##疳
##疵
##疸
##疹
##疼
##疽
##疾
##痂
##病
##症
##痈
##痉
##痊
##痍
##痒
##痔
##痕
##痘
##痙
##痛
##痞
##痠
##痢
##痣
##痤
##痧
##痨
##痪
##痫
##痰
##痱
##痴
##痹
##痺
##痼
##痿
##瘀
##瘁
##瘋
##瘍
##瘓
##瘘
##瘙
##瘟
##瘠
##瘡
##瘢
##瘤
##瘦
##瘧
##瘩
##瘪
##瘫
##瘴
##瘸
##瘾
##療
##癇
##癌
##癒
##癖
##癜
##癞
##癡
##癢
##癣
##癥
##癫
##癬
##癮
##癱
##癲
##癸
##発
##登
##發
##白
##百
##皂
##的
##皆
##皇
##皈
##皋
##皎
##皑
##皓
##皖
##皙
##皚
##皮
##皰
##皱
##皴
##皺
##皿
##盂
##盃
##盅
##盆
##盈
##益
##盎
##盏
##盐
##监
##盒
##盔
##盖
##盗
##盘
##盛
##盜
##盞
##盟
##盡
##監
##盤
##盥
##盧
##盪
##目
##盯
##盱
##盲
##直
##相
##盹
##盼
##盾
##省
##眈
##眉
##看
##県
##眙
##眞
##真
##眠
##眦
##眨
##眩
##眯
##眶
##眷
##眸
##眺
##眼
##眾
##着
##睁
##睇
##睏
##睐
##睑
##睛
##睜
##睞
##睡
##睢
##督
##睥
##睦
##睨
##睪
##睫
##睬
##睹
##睽
##睾
##睿
##瞄
##瞅
##瞇
##瞋
##瞌
##瞎
##瞑
##瞒
##瞓
##瞞
##瞟
##瞠
##瞥
##瞧
##瞩
##瞪
##瞬
##瞭
##瞰
##瞳
##瞻
##瞼
##瞿
##矇
##矍
##矗
##矚
##矛
##矜
##矢
##矣
##知
##矩
##矫
##短
##矮
##矯
##石
##矶
##矽
##矾
##矿
##码
##砂
##砌
##砍
##砒
##研
##砖
##砗
##砚
##砝
##砣
##砥
##砧
##砭
##砰
##砲
##破
##砷
##砸
##砺
##砼
##砾
##础
##硅
##硐
##硒
##硕
##硝
##硫
##硬
##确
##硯
##硼
##碁
##碇
##碉
##碌
##碍
##碎
##碑
##碓
##碗
##碘
##碚
##碛
##碟
##碣
##碧
##碩
##碰
##碱
##碳
##碴
##確
##碼
##碾
##磁
##磅
##磊
##磋
##磐
##磕
##磚
##磡
##磨
##磬
##磯
##磲
##磷
##磺
##礁
##礎
##礙
##礡
##礦
##礪
##礫
##礴
##示
##礼
##社
##祀
##祁
##祂
##祇
##祈
##祉
##祎
##祐
##祕
##祖
##祗
##祚
##祛
##祜
##祝
##神
##祟
##祠
##祢
##祥
##票
##祭
##祯
##祷
##祸
##祺
##祿
##禀
##禁
##禄
##禅
##禍
##禎
##福
##禛
##禦
##禧
##禪
##禮
##禱
##禹
##禺
##离
##禽
##禾
##禿
##秀
##私
##秃
##秆
##秉
##秋
##种
##科
##秒
##秘
##租
##秣
##秤
##秦
##秧
##秩
##秭
##积
##称
##秸
##移
##秽
##稀
##稅
##程
##稍
##税
##稔
##稗
##稚
##稜
##稞
##稟
##稠
##稣
##種
##稱
##稲
##稳
##稷
##稹
##稻
##稼
##稽
##稿
##穀
##穂
##穆
##穌
##積
##穎
##穗
##穢
##穩
##穫
##穴
##究
##穷
##穹
##空
##穿
##突
##窃
##窄
##窈
##窍
##窑
##窒
##窓
##窕
##窖
##窗
##窘
##窜
##窝
##窟
##窠
##窥
##窦
##窨
##窩
##窪
##窮
##窯
##窺
##窿
##竄
##竅
##竇
##竊
##立
##竖
##站
##竜
##竞
##竟
##章
##竣
##童
##竭
##端
##競
##竹
##竺
##竽
##竿
##笃
##笆
##笈
##笋
##笏
##笑
##笔
##笙
##笛
##笞
##笠
##符
##笨
##第
##笹
##笺
##笼
##筆
##等
##筊
##筋
##筍
##筏
##筐
##筑
##筒
##答
##策
##筛
##筝
##筠
##筱
##筲
##筵
##筷
##筹
##签
##简
##箇
##箋
##箍
##箏
##箐
##箔
##箕
##算
##箝
##管
##箩
##箫
##箭
##箱
##箴
##箸
##節
##篁
##範
##篆
##篇
##築
##篑
##篓
##篙
##篝
##篠
##篡
##篤
##篩
##篪
##篮
##篱
##篷
##簇
##簌
##簍
##簡
##簦
##簧
##簪
##簫
##簷
##簸
##簽
##簾
##簿
##籁
##籃
##籌
##籍
##籐
##籟
##籠
##籤
##籬
##籮
##籲
##米
##类
##籼
##籽
##粄
##粉
##粑
##粒
##粕
##粗
##粘
##粟
##粤
##粥
##粧
##粪
##粮
##粱
##粲
##粳
##粵
##粹
##粼
##粽
##精
##粿
##糅
##糊
##糍
##糕
##糖
##糗
##糙
##糜
##糞
##糟
##糠
##糧
##糬
##糯
##糰
##糸
##系
##糾
##紀
##紂
##約
##紅
##紉
##紊
##紋
##納
##紐
##紓
##純
##紗
##紘
##紙
##級
##紛
##紜
##素
##紡
##索
##紧
##紫
##紮
##累
##細
##紳
##紹
##紺
##終
##絃
##組
##絆
##経
##結
##絕
##絞
##絡
##絢
##給
##絨
##絮
##統
##絲
##絳
##絵
##絶
##絹
##綁
##綏
##綑
##經
##継
##続
##綜
##綠
##綢
##綦
##綫
##綬
##維
##綱
##網
##綴
##綵
##綸
##綺
##綻
##綽
##綾
##綿
##緊
##緋
##総
##緑
##緒
##緘
##線
##緝
##緞
##締
##緣
##編
##緩
##緬
##緯
##練
##緹
##緻
##縁
##縄
##縈
##縛
##縝
##縣
##縫
##縮
##縱
##縴
##縷
##總
##績
##繁
##繃
##繆
##繇
##繋
##織
##繕
##繚
##繞
##繡
##繩
##繪
##繫
##繭
##繳
##繹
##繼
##繽
##纂
##續
##纍
##纏
##纓
##纔
##纖
##纜
##纠
##红
##纣
##纤
##约
##级
##纨
##纪
##纫
##纬
##纭
##纯
##纰
##纱
##纲
##纳
##纵
##纶
##纷
##纸
##纹
##纺
##纽
##纾
##线
##绀
##练
##组
##绅
##细
##织
##终
##绊
##绍
##绎
##经
##绑
##绒
##结
##绔
##绕
##绘
##给
##绚
##绛
##络
##绝
##绞
##统
##绡
##绢
##绣
##绥
##绦
##继
##绩
##绪
##绫
##续
##绮
##绯
##绰
##绳
##维
##绵
##绶
##绷
##绸
##绻
##综
##绽
##绾
##绿
##缀
##缄
##缅
##缆
##缇
##缈
##缉
##缎
##缓
##缔
##缕
##编
##缘
##缙
##缚
##缜
##缝
##缠
##缢
##缤
##缥
##缨
##缩
##缪
##缭
##缮
##缰
##缱
##缴
##缸
##缺
##缽
##罂
##罄
##罌
##罐
##网
##罔
##罕
##罗
##罚
##罡
##罢
##罩
##罪
##置
##罰
##署
##罵
##罷
##罹
##羁
##羅
##羈
##羊
##羌
##美
##羔
##羚
##羞
##羟
##羡
##羣
##群
##羥
##羧
##羨
##義
##羯
##羲
##羸
##羹
##羽
##羿
##翁
##翅
##翊
##翌
##翎
##習
##翔
##翘
##翟
##翠
##翡
##翦
##翩
##翰
##翱
##翳
##翹
##翻
##翼
##耀
##老
##考
##耄
##者
##耆
##耋
##而
##耍
##耐
##耒
##耕
##耗
##耘
##耙
##耦
##耨
##耳
##耶
##耷
##耸
##耻
##耽
##耿
##聂
##聆
##聊
##聋
##职
##聒
##联
##聖
##聘
##聚
##聞
##聪
##聯
##聰
##聲
##聳
##聴
##聶
##職
##聽
##聾
##聿
##肃
##肄
##肅
##肆
##肇
##肉
##肋
##肌
##肏
##肓
##肖
##肘
##肚
##肛
##肝
##肠
##股
##肢
##肤
##肥
##肩
##肪
##肮
##肯
##肱
##育
##肴
##肺
##肽
##肾
##肿
##胀
##胁
##胃
##胄
##胆
##背
##胍
##胎
##胖
##胚
##胛
##胜
##胝
##胞
##胡
##胤
##胥
##胧
##胫
##胭
##胯
##胰
##胱
##胳
##胴
##胶
##胸
##胺
##能
##脂
##脅
##脆
##脇
##脈
##脉
##脊
##脍
##脏
##脐
##脑
##脓
##脖
##脘
##脚
##脛
##脣
##脩
##脫
##脯
##脱
##脲
##脳
##脸
##脹
##脾
##腆
##腈
##腊
##腋
##腌
##腎
##腐
##腑
##腓
##腔
##腕
##腥
##腦
##腩
##腫
##腭
##腮
##腰
##腱
##腳
##腴
##腸
##腹
##腺
##腻
##腼
##腾
##腿
##膀
##膈
##膊
##膏
##膑
##膘
##膚
##膛
##膜
##膝
##膠
##膦
##膨
##膩
##膳
##膺
##膻
##膽
##膾
##膿
##臀
##臂
##臃
##臆
##臉
##臊
##臍
##臓
##臘
##臟
##臣
##臥
##臧
##臨
##自
##臬
##臭
##至
##致
##臺
##臻
##臼
##臾
##舀
##舂
##舅
##舆
##與
##興
##舉
##舊
##舌
##舍
##舎
##舐
##舒
##舔
##舖
##舗
##舛
##舜
##舞
##舟
##航
##舫
##般
##舰
##舱
##舵
##舶
##舷
##舸
##船
##舺
##舾
##艇
##艋
##艘
##艙
##艦
##艮
##良
##艰
##艱
##色
##艳
##艷
##艹
##艺
##艾
##节
##芃
##芈
##芊
##芋
##芍
##芎
##芒
##芙
##芜
##芝
##芡
##芥
##芦
##芩
##芪
##芫
##芬
##芭
##芮
##芯
##花
##芳
##芷
##芸
##芹
##芻
##芽
##芾
##苁
##苄
##苇
##苋
##苍
##苏
##苑
##苒
##苓
##苔
##苕
##苗
##苛
##苜
##苞
##苟
##苡
##苣
##若
##苦
##苫
##苯
##英
##苷
##苹
##苻
##茁
##茂
##范
##茄
##茅
##茉
##茎
##茏
##茗
##茜
##茧
##茨
##茫
##茬
##茭
##茯
##茱
##茲
##茴
##茵
##茶
##茸
##茹
##茼
##荀
##荃
##荆
##草
##荊
##荏
##荐
##荒
##荔
##荖
##荘
##荚
##荞
##荟
##荠
##荡
##荣
##荤
##荥
##荧
##荨
##荪
##荫
##药
##荳
##荷
##荸
##荻
##荼
##荽
##莅
##莆
##莉
##莊
##莎
##莒
##莓
##莖
##莘
##莞
##莠
##莢
##莧
##莪
##莫
##莱
##莲
##莴
##获
##莹
##莺
##莽
##莿
##菀
##菁
##菅
##菇
##菈
##菊
##菌
##菏
##菓
##菖
##菘
##菜
##菟
##菠
##菡
##菩
##華
##菱
##菲
##菸
##菽
##萁
##萃
##萄
##萊
##萋
##萌
##萍
##萎
##萘
##萝
##萤
##营
##萦
##萧
##萨
##萩
##萬
##萱
##萵
##萸
##萼
##落
##葆
##葉
##著
##葚
##葛
##葡
##董
##葦
##葩
##葫
##葬
##葭
##葯
##葱
##葳
##葵
##葷
##葺
##蒂
##蒋
##蒐
##蒔
##蒙
##蒜
##蒞
##蒟
##蒡
##蒨
##蒲
##蒸
##蒹
##蒻
##蒼
##蒿
##蓁
##蓄
##蓆
##蓉
##蓋
##蓑
##蓓
##蓖
##蓝
##蓟
##蓦
##蓬
##蓮
##蓼
##蓿
##蔑
##蔓
##蔔
##蔗
##蔘
##蔚
##蔡
##蔣
##蔥
##蔫
##蔬
##蔭
##蔵
##蔷
##蔺
##蔻
##蔼
##蔽
##蕁
##蕃
##蕈
##蕉
##蕊
##蕎
##蕙
##蕤
##蕨
##蕩
##蕪
##蕭
##蕲
##蕴
##蕻
##蕾
##薄
##薅
##薇
##薈
##薊
##薏
##薑
##薔
##薙
##薛
##薦
##薨
##薩
##薪
##薬
##薯
##薰
##薹
##藉
##藍
##藏
##藐
##藓
##藕
##藜
##藝
##藤
##藥
##藩
##藹
##藻
##藿
##蘆
##蘇
##蘊
##蘋
##蘑
##蘚
##蘭
##蘸
##蘼
##蘿
##虎
##虏
##虐
##虑
##虔
##處
##虚
##虛
##虜
##虞
##號
##虢
##虧
##虫
##虬
##虱
##虹
##虻
##虽
##虾
##蚀
##蚁
##蚂
##蚊
##蚌
##蚓
##蚕
##蚜
##蚝
##蚣
##蚤
##蚩
##蚪
##蚯
##蚱
##蚵
##蛀
##蛆
##蛇
##蛊
##蛋
##蛎
##蛐
##蛔
##蛙
##蛛
##蛟
##蛤
##蛭
##蛮
##蛰
##蛳
##蛹
##蛻
##蛾
##蜀
##蜂
##蜃
##蜆
##蜇
##蜈
##蜊
##蜍
##蜒
##蜓
##蜕
##蜗
##蜘
##蜚
##蜜
##蜡
##蜢
##蜥
##蜱
##蜴
##蜷
##蜻
##蜿
##蝇
##蝈
##蝉
##蝌
##蝎
##蝕
##蝗
##蝙
##蝟
##蝠
##蝦
##蝨
##蝴
##蝶
##蝸
##蝼
##螂
##螃
##融
##螞
##螢
##螨
##螯
##螳
##螺
##蟀
##蟄
##蟆
##蟋
##蟎
##蟑
##蟒
##蟠
##蟬
##蟲
##蟹
##蟻
##蟾
##蠅
##蠍
##蠔
##蠕
##蠛
##蠟
##蠡
##蠢
##蠣
##蠱
##蠶
##蠹
##蠻
##血
##衄
##衅
##衆
##行
##衍
##術
##衔
##街
##衙
##衛
##衝
##衞
##衡
##衢
##衣
##补
##表
##衩
##衫
##衬
##衮
##衰
##衲
##衷
##衹
##衾
##衿
##袁
##袂
##袄
##袅
##袈
##袋
##袍
##袒
##袖
##袜
##袞
##袤
##袪
##被
##袭
##袱
##裁
##裂
##装
##裆
##裊
##裏
##裔
##裕
##裘
##裙
##補
##裝
##裟
##裡
##裤
##裨
##裱
##裳
##裴
##裸
##裹
##製
##裾
##褂
##複
##褐
##褒
##褓
##褔
##褚
##褥
##褪
##褫
##褲
##褶
##褻
##襁
##襄
##襟
##襠
##襪
##襬
##襯
##襲
##西
##要
##覃
##覆
##覇
##見
##規
##覓
##視
##覚
##覦
##覧
##親
##覬
##観
##覷
##覺
##覽
##觀
##见
##观
##规
##觅
##视
##览
##觉
##觊
##觎
##觐
##觑
##角
##觞
##解
##觥
##触
##觸
##言
##訂
##計
##訊
##討
##訓
##訕
##訖
##託
##記
##訛
##訝
##訟
##訣
##訥
##訪
##設
##許
##訳
##訴
##訶
##診
##註
##証
##詆
##詐
##詔
##評
##詛
##詞
##詠
##詡
##詢
##詣
##試
##詩
##詫
##詬
##詭
##詮
##詰
##話
##該
##詳
##詹
##詼
##誅
##誇
##誉
##誌
##認
##誓
##誕
##誘
##語
##誠
##誡
##誣
##誤
##誥
##誦
##誨
##說
##説
##読
##誰
##課
##誹
##誼
##調
##諄
##談
##請
##諏
##諒
##論
##諗
##諜
##諡
##諦
##諧
##諫
##諭
##諮
##諱
##諳
##諷
##諸
##諺
##諾
##謀
##謁
##謂
##謄
##謊
##謎
##謐
##謔
##謗
##謙
##講
##謝
##謠
##謨
##謬
##謹
##謾
##譁
##證
##譎
##譏
##識
##譙
##譚
##譜
##警
##譬
##譯
##議
##譲
##譴
##護
##譽
##讀
##變
##讓
##讚
##讞
##计
##订
##认
##讥
##讧
##讨
##让
##讪
##讫
##训
##议
##讯
##记
##讲
##讳
##讴
##讶
##讷
##许
##讹
##论
##讼
##讽
##设
##访
##诀
##证
##诃
##评
##诅
##识
##诈
##诉
##诊
##诋
##词
##诏
##译
##试
##诗
##诘
##诙
##诚
##诛
##话
##诞
##诟
##诠
##诡
##询
##诣
##诤
##该
##详
##诧
##诩
##诫
##诬
##语
##误
##诰
##诱
##诲
##说
##诵
##诶
##请
##诸
##诺
##读
##诽
##课
##诿
##谀
##谁
##调
##谄
##谅
##谆
##谈
##谊
##谋
##谌
##谍
##谎
##谏
##谐
##谑
##谒
##谓
##谔
##谕
##谗
##谘
##谙
##谚
##谛
##谜
##谟
##谢
##谣
##谤
##谥
##谦
##谧
##谨
##谩
##谪
##谬
##谭
##谯
##谱
##谲
##谴
##谶
##谷
##豁
##豆
##豇
##豈
##豉
##豊
##豌
##豎
##豐
##豔
##豚
##象
##豢
##豪
##豫
##豬
##豹
##豺
##貂
##貅
##貌
##貓
##貔
##貘
##貝
##貞
##負
##財
##貢
##貧
##貨
##販
##貪
##貫
##責
##貯
##貰
##貳
##貴
##貶
##買
##貸
##費
##貼
##貽
##貿
##賀
##賁
##賂
##賃
##賄
##資
##賈
##賊
##賑
##賓
##賜
##賞
##賠
##賡
##賢
##賣
##賤
##賦
##質
##賬
##賭
##賴
##賺
##購
##賽
##贅
##贈
##贊
##贍
##贏
##贓
##贖
##贛
##贝
##贞
##负
##贡
##财
##责
##贤
##败
##账
##货
##质
##贩
##贪
##贫
##贬
##购
##贮
##贯
##贰
##贱
##贲
##贴
##贵
##贷
##贸
##费
##贺
##贻
##贼
##贾
##贿
##赁
##赂
##赃
##资
##赅
##赈
##赊
##赋
##赌
##赎
##赏
##赐
##赓
##赔
##赖
##赘
##赚
##赛
##赝
##赞
##赠
##赡
##赢
##赣
##赤
##赦
##赧
##赫
##赭
##走
##赳
##赴
##赵
##赶
##起
##趁
##超
##越
##趋
##趕
##趙
##趟
##趣
##趨
##足
##趴
##趵
##趸
##趺
##趾
##跃
##跄
##跆
##跋
##跌
##跎
##跑
##跖
##跚
##跛
##距
##跟
##跡
##跤
##跨
##跩
##跪
##路
##跳
##践
##跷
##跹
##跺
##跻
##踉
##踊
##踌
##踏
##踐
##踝
##踞
##踟
##踢
##踩
##踪
##踮
##踱
##踴
##踵
##踹
##蹂
##蹄
##蹇
##蹈
##蹉
##蹊
##蹋
##蹑
##蹒
##蹙
##蹟
##蹣
##蹤
##蹦
##蹩
##蹬
##蹭
##蹲
##蹴
##蹶
##蹺
##蹼
##蹿
##躁
##躇
##躉
##躊
##躋
##躍
##躏
##躪
##身
##躬
##躯
##躲
##躺
##軀
##車
##軋
##軌
##軍
##軒
##軟
##転
##軸
##軼
##軽
##軾
##較
##載
##輒
##輓
##輔
##輕
##輛
##輝
##輟
##輩
##輪
##輯
##輸
##輻
##輾
##輿
##轄
##轅
##轆
##轉
##轍
##轎
##轟
##车
##轧
##轨
##轩
##转
##轭
##轮
##软
##轰
##轲
##轴
##轶
##轻
##轼
##载
##轿
##较
##辄
##辅
##辆
##辇
##辈
##辉
##辊
##辍
##辐
##辑
##输
##辕
##辖
##辗
##辘
##辙
##辛
##辜
##辞
##辟
##辣
##辦
##辨
##辩
##辫
##辭
##辮
##辯
##辰
##辱
##農
##边
##辺
##辻
##込
##辽
##达
##迁
##迂
##迄
##迅
##过
##迈
##迎
##运
##近
##返
##还
##这
##进
##远
##违
##连
##迟
##迢
##迤
##迥
##迦
##迩
##迪
##迫
##迭
##述
##迴
##迷
##迸
##迹
##迺
##追
##退
##送
##适
##逃
##逅
##逆
##选
##逊
##逍
##透
##逐
##递
##途
##逕
##逗
##這
##通
##逛
##逝
##逞
##速
##造
##逢
##連
##逮
##週
##進
##逵
##逶
##逸
##逻
##逼
##逾
##遁
##遂
##遅
##遇
##遊
##運
##遍
##過
##遏
##遐
##遑
##遒
##道
##達
##違
##遗
##遙
##遛
##遜
##遞
##遠
##遢
##遣
##遥
##遨
##適
##遭
##遮
##遲
##遴
##遵
##遶
##遷
##選
##遺
##遼
##遽
##避
##邀
##邁
##邂
##邃
##還
##邇
##邈
##邊
##邋
##邏
##邑
##邓
##邕
##邛
##邝
##邢
##那
##邦
##邨
##邪
##邬
##邮
##邯
##邰
##邱
##邳
##邵
##邸
##邹
##邺
##邻
##郁
##郅
##郊
##郎
##郑
##郜
##郝
##郡
##郢
##郤
##郦
##郧
##部
##郫
##郭
##郴
##郵
##郷
##郸
##都
##鄂
##鄉
##鄒
##鄔
##鄙
##鄞
##鄢
##鄧
##鄭
##鄰
##鄱
##鄲
##鄺
##酉
##酊
##酋
##酌
##配
##酐
##酒
##酗
##酚
##酝
##酢
##酣
##酥
##酩
##酪
##酬
##酮
##酯
##酰
##酱
##酵
##酶
##酷
##酸
##酿
##醃
##醇
##醉
##醋
##醍
##醐
##醒
##醚
##醛
##醜
##醞
##醣
##醪
##醫
##醬
##醮
##醯
##醴
##醺
##釀
##釁
##采
##釉
##释
##釋
##里
##重
##野
##量
##釐
##金
##釗
##釘
##釜
##針
##釣
##釦
##釧
##釵
##鈀
##鈉
##鈍
##鈎
##鈔
##鈕
##鈞
##鈣
##鈦
##鈪
##鈴
##鈺
##鈾
##鉀
##鉄
##鉅
##鉉
##鉑
##鉗
##鉚
##鉛
##鉤
##鉴
##鉻
##銀
##銃
##銅
##銑
##銓
##銖
##銘
##銜
##銬
##銭
##銮
##銳
##銷
##銹
##鋁
##鋅
##鋒
##鋤
##鋪
##鋰
##鋸
##鋼
##錄
##錐
##錘
##錚
##錠
##錢
##錦
##錨
##錫
##錮
##錯
##録
##錳
##錶
##鍊
##鍋
##鍍
##鍛
##鍥
##鍰
##鍵
##鍺
##鍾
##鎂
##鎊
##鎌
##鎏
##鎔
##鎖
##鎗
##鎚
##鎧
##鎬
##鎮
##鎳
##鏈
##鏖
##鏗
##鏘
##鏞
##鏟
##鏡
##鏢
##鏤
##鏽
##鐘
##鐮
##鐲
##鐳
##鐵
##鐸
##鐺
##鑄
##鑊
##鑑
##鑒
##鑣
##鑫
##鑰
##鑲
##鑼
##鑽
##鑾
##鑿
##针
##钉
##钊
##钎
##钏
##钒
##钓
##钗
##钙
##钛
##钜
##钝
##钞
##钟
##钠
##钡
##钢
##钣
##钤
##钥
##钦
##钧
##钨
##钩
##钮
##钯
##钰
##钱
##钳
##钴
##钵
##钺
##钻
##钼
##钾
##钿
##铀
##铁
##铂
##铃
##铄
##铅
##铆
##铉
##铎
##铐
##铛
##铜
##铝
##铠
##铡
##铢
##铣
##铤
##铨
##铩
##铬
##铭
##铮
##铰
##铲
##铵
##银
##铸
##铺
##链
##铿
##销
##锁
##锂
##锄
##锅
##锆
##锈
##锉
##锋
##锌
##锏
##锐
##锑
##错
##锚
##锟
##锡
##锢
##锣
##锤
##锥
##锦
##锭
##键
##锯
##锰
##锲
##锵
##锹
##锺
##锻
##镀
##镁
##镂
##镇
##镉
##镌
##镍
##镐
##镑
##镕
##镖
##镗
##镛
##镜
##镣
##镭
##镯
##镰
##镳
##镶
##長
##长
##門
##閃
##閉
##開
##閎
##閏
##閑
##閒
##間
##閔
##閘
##閡
##関
##閣
##閥
##閨
##閩
##閱
##閲
##閹
##閻
##閾
##闆
##闇
##闊
##闌
##闍
##闔
##闕
##闖
##闘
##關
##闡
##闢
##门
##闪
##闫
##闭
##问
##闯
##闰
##闲
##间
##闵
##闷
##闸
##闹
##闺
##闻
##闽
##闾
##阀
##阁
##阂
##阅
##阆
##阇
##阈
##阉
##阎
##阐
##阑
##阔
##阕
##阖
##阙
##阚
##阜
##队
##阡
##阪
##阮
##阱
##防
##阳
##阴
##阵
##阶
##阻
##阿
##陀
##陂
##附
##际
##陆
##陇
##陈
##陋
##陌
##降
##限
##陕
##陛
##陝
##陞
##陟
##陡
##院
##陣
##除
##陨
##险
##陪
##陰
##陲
##陳
##陵
##陶
##陷
##陸
##険
##陽
##隅
##隆
##隈
##隊
##隋
##隍
##階
##随
##隐
##隔
##隕
##隘
##隙
##際
##障
##隠
##隣
##隧
##隨
##險
##隱
##隴
##隶
##隸
##隻
##隼
##隽
##难
##雀
##雁
##雄
##雅
##集
##雇
##雉
##雋
##雌
##雍
##雎
##雏
##雑
##雒
##雕
##雖
##雙
##雛
##雜
##雞
##離
##難
##雨
##雪
##雯
##雰
##雲
##雳
##零
##雷
##雹
##電
##雾
##需
##霁
##霄
##霆
##震
##霈
##霉
##霊
##霍
##霎
##霏
##霑
##霓
##霖
##霜
##霞
##霧
##霭
##霰
##露
##霸
##霹
##霽
##霾
##靂
##靄
##靈
##青
##靓
##靖
##静
##靚
##靛
##靜
##非
##靠
##靡
##面
##靥
##靦
##革
##靳
##靴
##靶
##靼
##鞅
##鞋
##鞍
##鞏
##鞑
##鞘
##鞠
##鞣
##鞦
##鞭
##韆
##韋
##韌
##韓
##韜
##韦
##韧
##韩
##韬
##韭
##音
##韵
##韶
##韻
##響
##頁
##頂
##頃
##項
##順
##須
##頌
##預
##頑
##頒
##頓
##頗
##領
##頜
##頡
##頤
##頫
##頭
##頰
##頷
##頸
##頹
##頻
##頼
##顆
##題
##額
##顎
##顏
##顔
##願
##顛
##類
##顧
##顫
##顯
##顱
##顴
##页
##顶
##顷
##项
##顺
##须
##顼
##顽
##顾
##顿
##颁
##颂
##预
##颅
##领
##颇
##颈
##颉
##颊
##颌
##颍
##颐
##频
##颓
##颔
##颖
##颗
##题
##颚
##颛
##颜
##额
##颞
##颠
##颡
##颢
##颤
##颦
##颧
##風
##颯
##颱
##颳
##颶
##颼
##飄
##飆
##风
##飒
##飓
##飕
##飘
##飙
##飚
##飛
##飞
##食
##飢
##飨
##飩
##飪
##飯
##飲
##飼
##飽
##飾
##餃
##餅
##餉
##養
##餌
##餐
##餒
##餓
##餘
##餚
##餛
##餞
##餡
##館
##餮
##餵
##餾
##饅
##饈
##饋
##饌
##饍
##饑
##饒
##饕
##饗
##饞
##饥
##饨
##饪
##饬
##饭
##饮
##饯
##饰
##饱
##饲
##饴
##饵
##饶
##饷
##饺
##饼
##饽
##饿
##馀
##馁
##馄
##馅
##馆
##馈
##馋
##馍
##馏
##馒
##馔
##首
##馗
##香
##馥
##馨
##馬
##馭
##馮
##馳
##馴
##駁
##駄
##駅
##駆
##駐
##駒
##駕
##駛
##駝
##駭
##駱
##駿
##騁
##騎
##騏
##験
##騙
##騨
##騰
##騷
##驀
##驅
##驊
##驍
##驒
##驕
##驗
##驚
##驛
##驟
##驢
##驥
##马
##驭
##驮
##驯
##驰
##驱
##驳
##驴
##驶
##驷
##驸
##驹
##驻
##驼
##驾
##驿
##骁
##骂
##骄
##骅
##骆
##骇
##骈
##骊
##骋
##验
##骏
##骐
##骑
##骗
##骚
##骛
##骜
##骞
##骠
##骡
##骤
##骥
##骧
##骨
##骯
##骰
##骶
##骷
##骸
##骼
##髂
##髅
##髋
##髏
##髒
##髓
##體
##髖
##高
##髦
##髪
##髮
##髯
##髻
##鬃
##鬆
##鬍
##鬓
##鬚
##鬟
##鬢
##鬣
##鬥
##鬧
##鬱
##鬼
##魁
##魂
##魄
##魅
##魇
##魍
##魏
##魔
##魘
##魚
##魯
##魷
##鮑
##鮨
##鮪
##鮭
##鮮
##鯉
##鯊
##鯖
##鯛
##鯨
##鯰
##鯽
##鰍
##鰓
##鰭
##鰲
##鰻
##鰾
##鱈
##鱉
##鱔
##鱗
##鱷
##鱸
##鱼
##鱿
##鲁
##鲈
##鲍
##鲑
##鲛
##鲜
##鲟
##鲢
##鲤
##鲨
##鲫
##鲱
##鲲
##鲶
##鲷
##鲸
##鳃
##鳄
##鳅
##鳌
##鳍
##鳕
##鳖
##鳗
##鳝
##鳞
##鳥
##鳩
##鳳
##鳴
##鳶
##鴉
##鴕
##鴛
##鴦
##鴨
##鴻
##鴿
##鵑
##鵜
##鵝
##鵡
##鵬
##鵰
##鵲
##鶘
##鶩
##鶯
##鶴
##鷗
##鷲
##鷹
##鷺
##鸚
##鸞
##鸟
##鸠
##鸡
##鸢
##鸣
##鸥
##鸦
##鸨
##鸪
##鸭
##鸯
##鸳
##鸵
##鸽
##鸾
##鸿
##鹂
##鹃
##鹄
##鹅
##鹈
##鹉
##鹊
##鹌
##鹏
##鹑
##鹕
##鹘
##鹜
##鹞
##鹤
##鹦
##鹧
##鹫
##鹭
##鹰
##鹳
##鹵
##鹹
##鹼
##鹽
##鹿
##麂
##麋
##麒
##麓
##麗
##麝
##麟
##麥
##麦
##麩
##麴
##麵
##麸
##麺
##麻
##麼
##麽
##麾
##黃
##黄
##黍
##黎
##黏
##黑
##黒
##黔
##默
##黛
##黜
##黝
##點
##黠
##黨
##黯
##黴
##鼋
##鼎
##鼐
##鼓
##鼠
##鼬
##鼹
##鼻
##鼾
##齁
##齊
##齋
##齐
##齒
##齡
##齢
##齣
##齦
##齿
##龄
##龅
##龈
##龊
##龋
##龌
##龍
##龐
##龔
##龕
##龙
##龚
##龛
##龜
##龟
##︰
##︱
##︶
##︿
##﹁
##﹂
##﹍
##﹏
##﹐
##﹑
##﹒
##﹔
##﹕
##﹖
##﹗
##﹙
##﹚
##﹝
##﹞
##﹡
##﹣
##！
##＂
##＃
##＄
##％
##＆
##＇
##（
##）
##＊
##，
##－
##．
##／
##：
##；
##＜
##？
##＠
##［
##＼
##］
##＾
##＿
##｀
##ｆ
##ｈ
##ｊ
##ｕ
##ｗ
##ｚ
##｛
##｝
##｡
##｢
##｣
##､
##･
##ｯ
##ｰ
##ｲ
##ｸ
##ｼ
##ｽ
##ﾄ
##ﾉ
##ﾌ
##ﾗ
##ﾙ
##ﾝ
##ﾞ
##ﾟ
##￣
##￥
##👍
##🔥
##😂
##😎
朊
蹰
聫
槾
钑
囇
伵
雽
怭
紒
鴼
囷
橮
凼
蕮
婽
毢
蹽
筜
鬕
艑
憜
繊
烍
砘
棳
鐌
鴭
埄
倮
餁
鯞
𧋦
鋨
嬬
𩗴
簢
茷
煐
垍
埁
琭
羻
蘌
迖
煴
緓
翿
秴
嶆
兟
笯
傄
踷
樝
閤
浭
趘
軘
黀
凞
唒
嶎
嫊
歍
薓
瘭
綩
觬
踜
雗
綤
箚
彮
錱
跣
濻
姩
𥄫
嶈
匩
蚰
嵪
筕
筓
侽
縊
鼍
礸
觝
宊
叚
剅
澠
龉
萾
憴
餈
檖
緳
鉔
瀪
蓾
棶
枥
觭
秜
墝
齺
獞
腂
洤
鑎
誏
譹
軛
駳
鲇
筨
菮
璘
脥
膰
鐏
碦
慥
鐂
珼
辂
鴹
捄
鳬
觘
嘽
鍩
暙
鋜
慯
豋
萐
胼
軶
澌
愗
襡
斱
苅
絼
馩
亾
莁
凷
蔉
杘
庌
舁
鼊
婒
刵
蚎
埨
畘
狁
埾
锔
鸛
玞
埿
嘷
嵔
鹟
鬨
癉
洿
泤
铍
厷
鷂
犈
彑
囒
𢯺
缂
堜
矉
浟
鷼
夣
鴗
耔
鴞
贐
㨃
鮄
鯺
鷌
哕
跭
溎
銗
鶱
磉
葼
堍
鸅
𢯰
袹
泧
堚
秊
鋀
鉷
柷
殨
鳂
杙
扂
櫽
髷
騴
蟓
鍑
汭
宬
鍘
遌
寠
竪
牶
镫
悎
垽
涬
稁
嚫
斘
铪
洕
磹
娞
廘
礜
曟
郶
諅
鲭
蠗
碤
脁
牀
鮞
膮
譟
鵱
娊
澶
綪
圤
逩
飣
屫
滒
姴
湹
袲
髨
貎
豃
榶
凫
礘
锇
姡
翣
卆
臯
N
崿
舡
櫍
妴
芣
嚌
豼
徢
鹸
铈
怐
篣
慱
駵
峄
薚
掼
竱
鰙
徾
銐
鷋
蒯
栒
詃
脃
滀
觜
璭
㨋
箽
櫏
馤
漖
菕
褬
懠
蟷
瀱
燣
艣
玏
槣
瓗
嚊
檩
盁
懅
諻
橍
宨
椵
孮
焔
嬁
鄌
筗
𢰬
篟
蔇
柭
荑
烅
涄
嚍
虊
澼
猸
縼
棅
鏪
鯜
岉
艧
萒
𢮉
铥
槈
靝
猹
秐
鴇
鍲
鈌
傯
纈
眽
厫
漜
嬞
塍
憪
碄
覤
麁
耂
涱
姤
黰
諔
浀
琾
芞
貾
唦
廨
奓
豴
焎
鹋
玡
椇
嶪
疞
𠺪
戉
芄
纗
幮
沇
鹛
𥊙
旙
摖
虡
罝
峳
甠
嚤
猚
箷
杊
腢
犕
薻
儊
夛
鯠
鯆
蝁
鰿
跽
灖
犏
鄘
氂
鍿
飋
嗹
巣
錑
搥
鯚
蚋
吜
汘
鉠
鈭
噉
枹
硲
楐
瞔
嚗
桘
媨
卪
遳
鱱
桻
鏰
踕
詵
矃
槱
簁
鋙
埢
儛
悇
鞙
T
懢
抎
轚
銥
爔
鐄
訐
婞
鳺
舙
唩
俫
撹
嚖
裻
妎
鄳
唻
靐
珒
朌
抌
澷
袓
姙
枒
搟
饚
钬
忹
悿
軱
濙
䘆
煿
袬
澓
睙
郟
漒
鴺
檊
潷
觴
讗
羏
鴢
鞫
棓
叒
圿
駰
瞛
佖
荄
櫴
轕
啐
衠
悑
慊
锒
缑
𢰻
璸
乢
罎
顳
觹
熳
廌
襈
镄
鉺
茿
稏
葞
儈
𨅝
珋
鳱
芶
邩
邌
焬
鑷
驨
剏
毬
婬
螅
揂
壿
恅
繏
塀
梒
硸
溕
鮅
揎
唀
僓
吅
窵
譔
鋵
勂
茽
脴
歏
澥
徟
荿
𢰠
鑬
鍨
塐
繒
枑
窏
錼
撽
榼
亴
墆
趉
擉
滘
庋
詟
濌
籝
惝
徲
誑
藪
靰
闓
螡
脰
飫
敭
澽
哴
蔲
孍
煇
礶
禔
嗥
銱
欁
廾
苐
焷
孋
鎕
梱
齴
舯
兞
詓
冹
輹
筦
厙
塴
栔
萶
猤
絴
阺
娵
衤
紞
𨳊
鱠
栮
郪
蝧
㨢
譧
匃
妁
膃
嫍
鵪
洀
嶀
誋
粆
鵄
淃
鯹
氆
犣
煝
愩
葋
饜
梔
勥
嗕
篻
枙
箬
呧
墔
漮
崵
穧
赀
悢
锴
尵
鯩
柟
懆
檧
壃
崘
㧺
竐
憰
伖
崍
銡
瘈
跮
欞
嚉
蠊
騲
憗
惉
鉨
蝲
湻
杒
衧
顜
糝
遬
怷
叝
孎
韯
冓
乇
箦
嗙
孓
喣
躕
歮
湡
踳
毳
壌
爀
寱
佫
撘
槴
墭
螴
硋
槹
闣
耩
猍
鼿
韘
櫌
椖
𠼻
淟
佾
琖
彳
碒
𠤏
痳
繂
樻
癑
屪
眔
媠
毴
嗢
𢰹
鰼
崃
幒
醰
偑
𢦏
錌
絰
瘵
伱
夲
罓
茘
薺
臄
袵
砞
靗
褗
葥
酤
綎
勓
篊
檟
凊
趏
渧
隟
𡃴
庩
驘
絾
擯
渜
蠵
迗
爞
陚
欙
躘
歜
刢
彡
顖
刿
譠
淁
虶
摤
墋
奱
簕
鱡
扵
卶
詷
鳪
埮
鸐
嫃
搳
礳
橔
槇
驵
玊
蛼
蹫
縖
嫟
渁
龒
閫
犼
菹
愒
腍
葀
窣
櫒
摑
瑘
謸
爄
醀
絤
玿
袺
倥
褳
嶏
搰
幞
蟪
礬
姧
輤
蒫
淍
尲
暰
籹
愶
阼
幃
洟
啈
坢
鵙
匁
繦
竑
撠
嫐
溭
弪
凬
仦
䪂
筴
塂
鳿
熆
涺
𠝹
踧
馦
髵
菪
嘐
傖
蜅
埳
笥
桷
溁
鴷
憹
魎
闱
褭
酞
抅
薧
秔
駠
鮓
偐
瓹
婳
鲊
庻
蕕
鴫
髌
虗
桽
巏
嘓
洺
鑔
鏿
甡
诨
簊
焩
禋
蚧
楧
眪
呴
䞘
槨
瀙
颿
匦
緵
蘫
鮡
钲
櫲
珽
昑
麙
錔
犺
𩶘
焮
孯
埡
蝤
髾
梲
臮
厤
鞽
紷
棖
酫
鍹
碬
黮
蕸
擫
誆
遹
洔
夆
鞗
羬
笝
鵻
滍
偘
篏
鼸
麅
芀
吣
璠
嬱
啘
鵫
舢
盕
膯
燰
鸓
虇
妡
絝
鯫
蒥
旟
烠
茔
棴
鉓
黂
桹
畍
弿
鞵
姱
祫
喿
睆
怱
躅
亐
蠲
誫
蟁
嵟
甀
禒
菴
撢
箯
粣
凅
凂
傁
鄯
迬
奾
篜
凮
雦
銚
砢
孉
晅
噭
抰
𦟌
驎
攛
湋
𢯽
苰
馧
瑌
庽
禜
蜯
贀
沴
螕
軚
癗
璙
蜶
楅
耬
廥
薝
搕
剘
騚
蟦
峚
湸
褆
蜠
峀
歁
檑
焿
恾
杣
诳
嵛
轙
笎
濔
鈝
琠
篴
熌
趜
刔
剳
荋
蟖
潶
嚱
涏
焝
桵
崝
龀
卄
醈
廵
狅
渒
兎
悤
刯
嘬
萇
璳
侌
陜
拊
悭
岍
噳
葾
鏝
秬
茍
暕
螽
莙
皜
柮
駴
騘
鶤
縂
祪
縬
鸬
扄
狶
耫
頚
禥
櫾
湏
誃
婗
荈
攦
鵌
髚
殶
吿
翕
槕
鋯
匢
勨
欜
泃
譇
寭
丬
襫
妅
塜
怤
鵀
烶
魪
吥
窬
搑
銠
熞
蜸
昘
琹
岈
甏
腖
骲
鏬
鳙
侩
糉
顟
鷬
衘
岅
幊
錅
槠
暭
貈
獥
莈
鵒
逥
藡
錭
芠
拰
岊
貺
隰
髲
飥
绲
趄
慽
銿
駷
伓
詸
顩
棜
妕
骮
矹
笕
蚢
觙
肐
乴
扟
栟
凾
偬
嶰
鋔
奟
椏
斿
狦
唞
葒
楇
瞉
啳
俛
錵
軳
塃
潬
齠
裰
甊
軞
嶳
俤
穚
橯
儻
鑞
弸
栰
鬲
蔙
錧
瀫
戢
摾
峝
筿
蘡
煛
蘯
柆
蚿
孼
籙
篌
樌
靕
鹬
涻
緖
柊
媉
阯
鋐
瘳
镔
浱
鹖
糦
鑟
釺
挃
棸
蟧
粞
吔
艿
濽
梉
幏
蝡
缌
焨
鄽
齹
眗
淓
鐍
裫
玎
椃
赒
暻
艻
鲏
頦
奛
盀
冘
箰
侹
忄
槶
奼
迯
玢
瓨
娏
鏣
卛
邷
磭
炣
垜
宀
錇
纉
裮
陭
嘁
蟭
蠬
妗
攗
靁
迊
𩩍
撗
鍕
棾
絛
蛵
鱊
𢰷
埊
濎
扥
簅
鱨
銊
讏
訨
嗛
覭
桊
澲
臷
剰
蓔
鯗
愑
杹
椀
鎀
怞
鬮
絻
崠
抷
毑
俢
拀
绌
饀
姂
惿
繗
袔
冃
弅
旉
羕
襭
秌
皨
諁
诐
鏛
縚
钀
匟
蓒
睕
篂
舓
㹃
鴑
庬
弮
尟
麄
僸
雂
瓫
甁
薽
蹨
撛
螣
狃
洂
㨁
妿
摨
𢯲
綅
灍
軧
鯼
崌
魙
廑
豰
跫
疒
鷫
唨
瞍
釲
磍
譑
𢱛
梩
跠
鳯
僞
偳
酅
賛
璺
湌
癵
詀
畐
鮷
焐
鑹
藅
啁
陮
袶
鈇
幖
墪
㐬
寷
佁
醠
龓
曤
𢰾
櫅
軫
齈
痦
饆
隿
緭
𢰮
歘
逺
䭔
欃
禇
褁
裭
蕬
讋
傠
駫
竘
郛
蔀
穈
藌
惣
氝
窼
繎
捸
仚
鴂
珚
唗
犡
峍
讂
貕
眂
犲
劔
韗
趚
旾
晇
棥
迏
賙
卽
猐
鼈
崀
廡
蓇
韮
黉
槩
靷
倳
嚋
鶧
閿
樠
冎
玤
湣
鏫
廛
裧
靣
曘
牄
鍝
撊
蘽
𦧺
堷
圅
贽
狋
鈧
盨
泒
鷒
唲
媂
褡
馱
懍
襤
澅
砜
魭
遟
鈄
譶
穡
餻
軝
䉺
羭
莔
旄
佋
駔
嶢
焵
邡
轤
誎
鑨
抝
罽
菺
罦
铟
𢠃
舄
犦
夽
侴
牏
銼
懚
緄
澃
逈
鏹
嘕
尙
餗
絓
嫅
梚
螚
郠
镽
綷
搣
灅
毪
捾
楡
軦
絑
幁
濥
岇
閼
鶮
鎰
蟌
膸
衪
侳
脕
纟
鬙
裗
跬
昰
傡
硉
嚰
挷
沰
硑
峸
餇
矬
渪
駧
鮇
镻
鵋
碊
窻
氀
鈅
媃
渑
煑
爂
幜
蠨
誢
稇
孁
儔
晬
畱
潠
濖
怊
羜
旍
葅
喒
懝
淽
嵆
莚
髤
魼
慠
𢱎
菷
冝
纑
厺
頠
膅
櫓
懎
莃
𢱖
宐
瓌
哱
忳
鹢
櫶
褢
荦
郚
喁
騗
鹗
蝾
旜
吇
縵
囯
雓
塱
骹
粝
澐
丂
唌
燾
蕌
魣
詪
縘
訧
屸
恮
滠
刡
溹
茣
羰
峠
卌
鋑
梡
窸
矝
騠
謿
柝
奦
炨
P
忎
堮
纃
瘰
蜵
翤
冚
楈
崣
棃
漐
籆
瀴
鉁
庰
惂
箑
鬐
揌
賯
翉
睷
賆
馲
谵
酑
鎇
扐
卣
犌
鄠
缫
鐤
蘥
仯
巈
咡
簄
鮕
驃
牓
肧
縤
鎅
仛
讐
桏
㩧
郗
糏
啌
摕
韽
瑉
僺
犰
嚲
匜
螎
庝
縒
覊
綔
甴
褉
塲
鈹
劆
穁
畣
桄
柀
砵
轝
笖
釸
瘱
忦
旳
豳
碽
艖
嫄
楰
鏍
獦
㦴
撍
賌
楛
湙
唼
銨
聑
雬
鸀
鉳
鷅
仺
勏
㕕
瓩
魩
溮
禵
墫
賚
鶅
筭
泝
毩
萔
桙
褘
飺
驺
豑
熎
砑
楒
曀
媓
牻
莨
僂
矔
讈
缵
鲥
笴
鐇
襊
煓
壾
橓
擝
緢
裪
魿
皸
炧
掽
柂
摵
堦
綊
涴
趃
褣
矠
煂
譕
樋
啝
狳
覂
匼
茊
殥
槅
嶭
𢱝
齕
懟
侜
翀
絟
鬺
𤇾
锬
蔠
庯
磌
膵
炩
渳
齛
艽
爗
韄
輺
碞
騂
愯
紌
槺
蔱
羢
硔
璒
槰
勜
囦
帊
虸
墠
愺
甆
掄
嶲
貭
硦
豛
焛
捛
樕
𨳍
刟
鬞
麈
覨
涗
铒
夶
奭
鯘
魛
馹
觋
瓪
僴
縡
蚮
趽
幵
憸
鼝
瓵
剬
磾
屔
牕
拃
拁
烻
鼒
莀
衖
髈
鰎
扨
蟝
呾
薡
瀷
諲
鰥
巸
靽
鄾
敀
鐠
骬
儠
戭
陬
祵
荴
蕔
侸
锧
穽
圐
漍
鈡
奯
侭
焻
輽
裈
荓
亁
蕝
輄
遰
輨
寃
駸
酹
圶
摋
卝
膫
浹
萠
欭
黖
龎
䍃
楉
卙
冴
薶
礧
攳
儮
畞
萅
揅
崻
諪
龗
哵
晄
颺
篔
湓
墡
兂
蘷
盄
喢
狷
贄
䭮
緉
贚
欴
煋
輠
鑛
傮
藗
豲
㨌
𡁻
轵
鈼
兠
鄅
韺
峵
耑
阧
譮
罾
鑅
櫳
唹
遉
伿
穵
驓
坈
絿
晀
鷛
汷
橀
嶣
衶
耝
襍
麰
隉
讌
轔
Q
縩
蝑
絥
孨
鳁
娦
齱
洫
狨
瀄
軁
愄
瑽
溌
粇
僠
憅
硏
郺
駖
涍
畽
圼
俲
毱
忲
狕
巗
瑈
噘
伷
眎
翚
茑
錍
匳
僬
艨
餶
齙
殟
缾
鐐
嫞
藊
鏷
菣
肁
覐
蓽
躀
蟈
蝞
銎
翨
烴
誶
湝
毌
鬂
銺
鮃
炻
笿
檈
曍
綥
鞂
瑍
驜
旹
劚
猇
呫
滰
媼
袡
囵
殔
蒦
沬
殌
櫯
鸄
欨
伭
矺
跔
藠
凖
厜
嵀
斠
嶥
忛
萴
奁
馸
詖
豱
駼
賲
𢰥
偣
揾
罞
褴
鈢
呰
儢
梃
炛
棫
囓
鲆
殮
儗
耱
耇
楺
飁
孹
蟳
踶
鏓
闀
馻
誸
鹇
庮
擧
鑂
邅
𢮂
鞉
鍙
鑡
𢰩
氉
絫
鯦
穳
汫
縍
黗
鈋
倎
玌
栣
迱
莌
熺
麢
驄
驋
恜
笚
兊
晛
嫳
褛
荌
鮤
奡
禗
怈
侲
罫
獀
𦥯
勌
掔
鰶
儎
渓
璹
隹
銪
戱
篿
袿
躛
蕿
腨
彔
搷
徃
尣
咍
啑
獶
惥
蝻
夎
倧
禶
楲
綡
扢
疩
儩
糱
浳
瓖
挸
恱
紶
踛
鎍
縭
餴
砐
玆
嶔
䁪
罙
蚨
黟
檛
餄
鉵
猦
葶
丗
螭
堞
绹
庤
躴
磃
嚃
腟
抈
鮆
轢
菭
蘱
牑
蜟
夁
閐
蹡
魆
蘴
耲
愰
鬏
鲠
榗
漹
疧
鶹
刅
疉
懡
簬
隯
宷
玃
唍
欔
扸
逿
顪
鍮
邍
栢
怌
𢮏
訁
庉
𨋢
蹹
瞀
姶
欼
挻
嬯
餎
蠓
軔
菃
孭
竬
肷
淸
牪
黬
倴
趎
寘
陃
鷈
灁
鰋
峃
濓
覔
嘾
岋
幆
疪
揝
賗
偺
𢰶
牮
縲
淲
畆
瞗
轳
頉
曎
皛
鱂
錂
麞
滖
馓
鎸
靯
僀
瑆
徸
縙
瓅
斪
崱
钪
璅
臝
卼
墽
夅
艍
賱
碀
喤
庘
伩
斞
甽
裓
覜
瑬
鐁
砬
勡
輡
駹
鏀
梴
帱
宆
唓
𦧲
醥
梈
倂
屘
晆
廏
埍
愽
雃
鋬
窇
捇
鳭
堓
趡
楖
輶
駨
郻
鴘
𤺧
鐎
沠
敐
艂
駉
彽
惐
碂
迃
鷩
盝
郐
铋
帨
蟗
閺
莄
嵼
醡
顠
钋
畉
椊
渽
鳨
阄
榃
鱕
暯
踈
鑩
稖
埉
訵
麎
硪
鍄
鏥
邽
瘥
婏
鵢
眭
嗏
蔸
饢
砈
煳
偹
尩
霟
乁
趖
褞
V
鲼
玗
瀐
趫
衳
禰
㨔
雿
瞂
鸌
耚
媅
郏
坫
钽
楏
臔
攊
鏃
螊
駂
氱
涳
羐
鄬
渃
墯
澊
㧼
惛
亝
嫋
脤
鍤
蓎
蠃
艛
癿
礓
辳
舠
錴
塙
塳
籪
魦
姷
緤
恓
塷
蔁
鈛
俦
镃
蚆
埯
脙
嬦
鴾
骝
閝
爅
褵
恗
歾
甒
朣
穤
耈
鋝
鏩
諉
纎
哓
呯
篭
鿏
跍
禓
舻
痯
𢰃
賩
匽
渌
覝
偆
舏
澻
濗
熃
寖
椸
櫿
棏
蒮
蒩
葸
玅
𠃑
𥇣
俍
蹛
揊
泩
酄
殹
觔
徦
匨
箒
姯
嬚
裶
觱
哸
瓀
輥
硃
甔
𢱑
抃
躖
眘
輁
浻
潨
沎
厞
舨
柹
啠
蘻
豏
艸
淭
鵚
眫
鎫
劮
龢
鳉
鵹
舳
鋆
渟
槖
廲
钃
蹮
枏
殢
熛
墑
潩
襆
磰
媶
玐
悥
畟
碿
稕
雐
轁
恏
豩
磫
鳇
峖
矁
澵
訔
嗐
堧
蛅
磏
飜
汋
褧
飳
硠
锘
欱
嵽
阸
徣
鴪
晢
壝
劰
兪
宂
郱
籫
邒
轾
藦
熓
炢
讠
凵
亅
矐
湵
袝
姁
嶗
澰
矰
衉
奺
鼴
燺
䠋
緙
倰
缹
罃
偔
鰀
旚
栱
恽
硟
㧿
劼
骭
莰
詅
戣
疺
衊
蒵
閈
敽
鷱
鱭
笗
杴
邗
哬
欑
懴
汵
薖
陴
暎
獌
藱
靧
刕
蠥
毇
罋
耊
璥
蛠
谳
籿
蜏
藇
憯
襃
牊
篍
轥
貹
溑
爚
抇
攴
蓂
碥
锱
騈
堟
鈰
椟
茀
遆
赹
纀
轐
廗
榍
濜
毈
娒
鷍
癄
矎
鲵
僋
鉶
謞
攵
饹
秿
伳
齟
賋
渻
侘
揧
鄏
帞
逪
箁
慺
坶
耥
痶
鴽
靾
𩓥
鮰
镴
坴
獴
嶒
逳
栝
彋
嗘
僈
硢
歿
麇
慜
夐
飡
肫
盚
嫥
旿
湠
揇
撟
魥
錤
齔
抴
崅
缃
藺
顸
屵
餟
垴
磇
诂
蒪
餲
訌
爢
蛽
鎉
秝
釭
喾
枌
馯
襶
髳
躌
厬
碔
稺
膷
湥
𠽤
聕
繝
俓
媻
熐
箢
湜
蒢
鮢
浢
獹
蜣
宖
騤
籘
篞
瑇
靿
脢
鑺
岿
鵎
睼
穇
藋
俣
檮
搙
砻
婻
釼
疷
蕦
漘
撌
坣
膉
僘
觗
鱲
艁
憖
甂
猂
萉
鞢
鉯
璌
辏
樢
糈
擩
黅
豵
驁
肶
櫘
螰
洧
舥
灇
灦
驆
窛
鲚
碸
羂
羙
屙
轘
箻
齎
侪
虀
浖
荩
𢱜
䂿
攍
饝
豓
鱤
苀
朡
嵧
U
苴
瀗
漶
躥
磄
佷
觡
扙
鳢
旘
荺
氎
鋚
坬
廅
蹷
蝛
腉
楁
旓
腛
蔤
蕺
蜮
亣
趆
缟
蕘
狥
紸
罶
瑓
漥
黸
嶝
嫪
緆
A
眐
鳻
硧
鄫
箹
譐
峐
拻
鰡
犥
駾
庼
釡
塣
讒
樳
鷜
渕
𡃶
叓
竆
聦
扃
敹
睔
蓸
璮
壨
儖
簗
柁
洬
皡
鉸
楳
鴍
䫯
訇
魶
稪
毞
弐
矦
廍
呁
藃
鸁
歕
孞
盦
趤
糀
燋
钌
栚
咓
堢
搠
磱
瓚
踸
僫
徤
萂
屣
娋
麪
籑
鄀
𢱁
霳
騉
敒
豿
挔
昦
蔒
訦
犉
庴
枺
嵏
趇
覘
蹆
靫
咈
讵
騜
餕
鴮
諿
鑪
媝
汸
蓏
鶔
艩
厶
腞
糣
檌
滼
銁
瀵
闠
羺
熩
妯
珻
忟
麖
琓
煵
牰
薸
炋
鍒
誯
袾
蕽
霣
湦
鍷
呣
潏
騵
𢰧
堳
镘
豝
紲
铱
挀
翗
焓
鄵
鯿
鱹
橬
鷭
焳
澬
鴌
畖
顤
鼢
镨
阥
薎
崶
荶
鎢
喗
巋
紽
瓋
俇
毚
蠽
緶
謍
誀
籕
橅
癓
寎
魴
艆
簳
龝
疃
殠
蠎
帀
怄
譃
羫
勑
琔
秮
殎
髑
赽
篖
墍
滽
畷
錝
氅
闤
鐹
癶
韠
埱
厸
竚
𢮊
萖
壄
孆
豷
滣
攁
漦
蛬
葤
隗
鼭
簃
鴲
鑗
儥
镓
匄
葌
軹
籅
侻
珇
絠
譀
垗
燵
耪
竗
陓
絸
穻
叧
軩
眛
孥
褏
軖
櫜
蘲
寕
螪
蹓
鸷
胾
苂
羮
礮
噆
仜
嚬
睒
婈
鐦
騌
爕
瘷
裛
咺
𠹳
殣
嚧
顅
釾
齷
諣
蹻
鉼
塡
睓
鸂
鹍
杇
崦
焺
陿
薣
澑
橗
嗈
乪
柪
炴
睮
鑍
濅
煻
堉
拝
奜
稴
擵
塼
摛
哤
逡
筶
絔
枞
欯
鼮
鏒
澫
蘶
湉
酂
僼
癀
糶
塺
粶
贙
庍
咟
褺
峱
忶
棷
讇
勷
嶘
鼜
埶
粷
齍
瘉
鶌
譼
鸩
熻
茈
羀
鑀
韐
羠
伥
犖
鷷
艗
偂
駺
孒
遫
柲
盙
烵
拠
駀
廞
螌
耯
蚛
棽
迨
釷
鼫
懱
沀
峫
雝
烌
漤
昬
𠂤
讱
阊
楆
曐
馣
莦
啒
擤
鼚
寉
玈
賅
煹
巂
軕
鴠
栭
袃
𢯹
顓
醧
銒
竁
炾
栞
蚫
娳
庿
咼
Z
鶈
呟
唛
婋
鷕
燂
獫
媗
褦
伣
蠠
芲
猵
猏
嬠
摿
盌
竈
泂
蠤
薘
肵
坙
癘
蚽
玁
钚
搎
簭
韀
皷
熿
剱
鐔
睅
髶
亗
顰
𨈓
訬
赱
胲
稂
葏
衑
浾
鴆
鲉
瓇
鏜
莛
伃
頄
徆
蠧
埜
銤
槫
聅
閁
慤
硜
罭
娧
钂
淕
剈
礻
堊
鴀
岠
魧
橌
闐
骳
鞤
筇
蛏
蜲
駙
噦
眢
紻
揼
駞
瓎
冟
篧
蹧
櫱
纮
邾
覫
袇
眏
鬸
兿
穼
霔
爑
砄
貉
麭
缿
谡
璱
鄤
蔨
覀
蠖
猧
誁
鉞
邉
繺
蛝
煼
睉
瑺
敯
鑈
枼
篼
棊
賮
犛
騞
㩒
偟
幘
悧
厵
灤
癋
蜪
碐
蟨
愔
媍
锫
閸
潙
鬾
爤
阾
檚
頺
槥
趍
萯
劧
髐
簛
銩
鮙
轏
镸
呑
媴
剴
燫
鴃
膁
鋏
踫
隬
蘛
糆
蓵
蝜
蔟
酴
湞
鰺
𢝵
𢺋
訿
肳
鮌
堁
袸
藀
彴
攰
俋
婥
扻
躑
斦
鴖
蔎
缻
堫
琜
滻
迼
秎
豽
璪
鮦
鞃
芐
歈
侚
剨
轃
轡
虝
鶋
輋
蟩
惏
岯
瞹
丠
艴
嬵
枈
蟱
洈
欤
贳
耤
暚
漞
窐
丣
齭
㖭
锗
藒
娺
秅
尛
皩
𢱗
溓
欬
妏
啋
骟
斅
挄
訏
蠀
藯
髱
縏
輧
垆
魗
磪
崲
鄨
瑝
袼
朲
夗
滳
瞴
鰊
竾
邶
軡
錜
趦
蜺
貮
鴝
奌
閅
龏
巵
垞
樎
鰗
炃
犮
豞
汳
仌
瀤
齲
鱻
贌
疄
擐
扆
躆
朎
鑢
昹
侰
匔
蜤
盳
煫
枅
葖
秱
绉
毲
裷
疅
颀
褿
锝
鳔
秞
崚
矒
柎
餺
鼰
荂
稐
葘
抯
帵
祄
讬
蘝
罘
簔
醌
韡
餦
榽
曈
搴
巁
𢱆
仼
閄
嚛
坿
繲
骎
嘵
鐈
鼔
嚦
猈
袠
媟
蔂
壏
鬜
厓
挏
鹡
婹
泔
唪
矄
斾
瑿
槯
婜
诖
凗
鋍
蕥
戺
鬤
殙
凟
粎
虍
邲
岴
嶯
镬
諑
靻
鳽
喈
鸲
鈯
吂
饡
薐
阹
瀿
坺
郉
𠔉
覛
硶
敟
聵
嫾
巐
镮
唶
颕
熯
㗅
兓
髩
梋
𢰫
湈
縓
駽
阝
鐜
鐼
珦
儦
翷
鞱
俻
癧
閆
愘
纒
虃
鳟
徻
撦
颫
囬
痋
斶
醓
掁
儁
鋢
飦
淜
鷪
拪
饛
玶
殅
笧
鸗
嶸
臡
砪
棛
屰
毰
詺
鍽
韔
觮
帲
玓
鮣
砩
鄸
窀
骍
挢
葨
曓
澨
鶳
喡
膬
樘
穙
醎
叺
鶲
砟
鯇
岨
圱
湨
萜
畬
蘵
蠌
廰
爇
鹀
嬹
暳
鼗
𢴈
拶
椕
眀
俅
鈜
伀
魜
荭
嫜
笲
輖
悫
蒧
糇
龑
鈓
鰫
笱
菐
鼷
甛
诎
鶿
厎
瑅
瘔
纝
𣖕
浤
纘
橂
鏼
挰
齌
謕
亯
圝
胩
朼
鷓
鶓
拸
曔
桳
偫
浨
怚
牅
侢
鄖
頪
暘
駡
泦
祾
胈
蜩
馝
佸
噍
籊
礩
蠂
歵
磟
綗
砆
絍
庎
輆
譛
趶
翃
訸
噵
鎟
呭
湚
筎
贋
敡
壉
掎
軮
絖
鎯
鶀
戵
沘
潳
螶
蘧
懛
忢
渷
紝
蠒
圪
瓾
亻
茻
蔢
軜
鼃
镲
嶬
涁
劘
挼
辤
篢
儣
鳵
鵷
燱
謭
漡
嶻
聄
譤
筼
暟
炓
銟
磞
眰
彃
沝
殕
琻
狚
蜄
顒
鷄
㤻
笫
瞃
吚
漌
𡄽
焟
屖
魢
鼆
曋
傽
繅
鴯
齖
緀
駏
唅
绠
旞
枽
粢
琀
爯
憌
壎
硍
瑮
椗
屩
鄶
栯
鞨
謧
厯
迳
囼
葊
痌
悂
涆
𢮐
剦
鳲
獳
鈽
烝
狉
舘
矲
翧
撏
缳
籛
侟
蔩
椻
釅
銻
挌
堝
蝩
砓
牫
鷊
鶢
甗
駊
鼦
槊
醔
觠
襥
诓
艬
鏂
菵
訉
鷵
忉
顄
桫
孌
聬
沔
錬
薲
惔
崓
殦
脔
韱
镟
祣
蛪
僆
躶
獃
踣
藮
箙
葟
蜌
恇
伒
檽
礱
駶
梼
蒃
謱
儜
穑
诔
畻
鎥
陫
媊
掟
瞵
薠
摡
礖
齧
幪
澖
摃
峩
偼
菙
嚅
觩
靤
鳣
孄
彉
糳
咹
搆
欪
潻
燍
𢯾
壙
躃
筟
韁
艀
匭
豣
鱾
凁
橞
瑸
箣
嶹
槜
簲
𣚺
鈲
銴
硣
鼵
蠰
獩
鬗
鴬
蛖
佴
偞
忭
碹
酲
綐
顐
恟
杧
榧
漼
檉
椼
琩
桸
冂
㡀
绂
偨
赸
臌
伇
扡
訩
騮
鶾
墇
錽
鑤
姌
阣
薀
蒓
俵
溘
炇
邴
堸
鍴
癅
敼
偠
翮
乿
擃
𢱉
嗉
徯
蘮
嘪
趀
鰪
嬟
鵕
喑
擟
潌
饇
赲
捙
恊
荗
鲧
㬎
刖
篾
眕
瘂
蛶
锜
㨄
澾
摽
锠
妔
忮
繍
軃
畚
腙
妫
䍇
摓
抮
潡
鰂
穰
湗
慝
愬
豟
煃
闞
樛
鷧
慩
鐆
矓
爩
㧻
徎
熧
睄
觇
澏
硚
鄟
臽
欘
磘
偸
鸱
鄇
秾
晳
愃
斸
曫
銢
潊
溍
窰
炂
觼
膟
賹
輂
呖
竦
尯
驪
駻
黺
虥
甉
玦
婣
墥
锛
吤
踇
坥
刣
橎
舚
裎
堭
雴
熡
鳏
諀
燹
宩
㇉
儾
㨍
釰
襚
L
婱
矆
扅
螮
麠
聙
閌
坉
孾
鞳
掯
颵
湱
貇
盿
砤
酈
愮
啔
埒
旸
顃
赾
鈟
棿
啯
礑
媕
碪
嚶
繓
筚
妺
昣
镎
橥
埭
戃
襾
疍
蜁
鬯
鶇
敥
揢
瑥
胦
叕
趐
榵
奆
渀
諘
騻
遚
㒓
乑
箈
𠮨
塄
畨
㩻
穣
茚
骢
螾
薼
劕
虣
懣
盉
蠜
鑜
毨
晲
沤
蚘
訜
酕
喐
觶
贉
喯
峂
鴧
嵞
笳
馫
鸑
彖
乸
螘
敊
璶
蓶
觾
偅
駓
醸
巀
吷
敿
佅
𡿺
仳
櫉
𧩙
敱
娻
錹
坋
壔
瘛
眇
鱥
跉
毭
鱀
梥
礉
煔
堣
籈
蚙
厖
峺
澔
嬃
甶
逦
搝
肨
媁
腝
捼
郈
萹
釫
葠
瓄
葢
肸
塋
馟
鴈
愐
鏻
峊
鯃
呪
氽
鍭
儑
梄
焥
鎈
嬾
蕣
帿
彠
𨳒
嶾
愂
峼
蠼
睈
輮
齩
甝
鸫
鼙
湩
钔
鯝
鏠
髰
甪
豸
垖
睍
鐪
愎
攼
嘼
攎
頋
氌
磥
簶
堖
駗
缋
媦
塮
嫮
狝
豭
唚
儴
蟤
磜
龠
蹥
冺
幎
麍
摂
怮
濧
沗
滮
鑥
迕
趷
剭
褷
胋
阠
嗋
辥
錎
匌
厽
浲
遱
𩓙
蟃
藶
膧
潵
爒
𢷮
襌
苮
諩
嵲
箄
簰
嫗
檅
橠
訚
寗
軻
鵴
羦
褟
茠
蟇
淿
禑
犩
𧕴
厛
饓
礵
痻
覗
觤
鷏
樨
柣
錪
彐
眮
梌
逴
鴡
妟
鼱
獁
鵦
鵠
锃
潅
舽
卹
郓
夀
瓓
趻
憘
襮
蝄
肦
鞬
瞈
懓
賐
炡
侐
涒
鉌
鐬
硈
厧
蕳
駩
朙
燶
烕
鶨
濆
犴
喌
挴
逷
蔅
纅
蝯
碶
鞲
饏
鞚
玜
梷
脀
磤
瞷
葎
鼖
玣
玼
惼
贎
霿
铳
矏
瞽
笓
糮
丏
娸
撱
癊
鏚
螥
浫
雮
勼
熤
褤
蘹
昄
驡
譫
菛
冑
鵗
髊
笮
濳
駑
岝
喅
靎
靮
尒
晵
攷
囙
勦
黻
熲
滗
涐
榟
闉
陏
氕
溨
疁
琝
坾
赬
鄹
餪
駃
莸
毸
鈵
攐
濝
犋
祽
緰
樄
蹢
挭
碋
烺
冮
綶
犳
貟
砯
桯
銏
鏄
餀
轫
砉
旆
鼥
螐
湎
瘒
漟
蓺
菫
蔐
圵
禌
箊
詂
櫰
忁
睤
帒
甐
怓
暛
袉
娕
蓃
傶
枀
襔
椞
繨
烒
捰
瘏
啹
縢
絜
葹
巉
黇
瑨
捭
艞
鴄
戋
圑
宎
皊
徝
溳
弴
鍱
勽
礅
抋
瓬
煁
瞁
秹
蚭
謑
塯
擻
氭
謫
芧
睌
膕
獑
贕
蹁
瞨
耞
錕
鰌
嵚
遧
盋
楜
汒
獊
杚
靌
跓
栻
豄
皳
苵
鳧
擸
黾
敋
倞
傈
嬭
鷠
猢
樼
檡
帹
绗
曵
麮
灻
蟡
觲
飵
扊
嵢
孈
鎤
匥
酙
葝
歋
幈
鱋
瓆
镋
櫨
熁
犅
襣
巭
飱
斒
蘁
隓
嗄
輳
奲
甹
罱
铧
悹
晪
襗
牭
瓺
鐃
怟
煗
鲮
㇆
趼
慛
畮
寈
爈
瓃
桗
嗍
帙
珖
灜
倠
郩
滃
彸
窶
蕷
鮽
罛
騍
瀦
鮫
鈥
眡
闂
藚
摰
屺
鄡
鸖
齵
謵
堨
豥
坜
矈
婓
廀
帪
迒
鞊
訒
隤
鱬
兘
𤷪
鮝
宻
醖
篕
䳍
殳
爃
糚
敳
殫
嵥
辸
穘
憵
烇
玍
嬓
磑
磝
箆
翭
瀀
鲩
鏺
檨
戠
拹
瘖
轱
恂
搿
鍗
棬
禷
嗊
敫
榲
冭
嫱
嶧
洘
俒
淾
斉
稡
軉
醭
狻
棌
阽
聃
苠
朞
夦
蚐
宲
骕
蓍
擮
鱦
剄
庡
詙
貑
檇
湑
旔
偢
嶴
螼
搉
鎶
妠
橭
媀
趈
稦
蟉
鵁
炍
媌
鏳
熽
钐
彟
伆
翐
毃
镹
鋥
瑴
凐
睭
鼛
徂
磢
壦
呇
跸
稯
礄
鼧
驞
䀹
絬
鑘
焧
肟
汚
濄
抂
爋
鋖
𠱃
疋
麘
紭
羗
榚
瑱
氩
逌
胂
銔
樲
熣
媯
壠
懁
飉
匸
塨
铕
灡
怩
萛
謆
堾
鉐
錆
慴
齶
韎
澮
淣
禴
暅
烳
褾
圞
蹵
髽
劎
揓
鷐
烆
徧
樆
餖
胒
刓
黓
舴
嘏
簠
蹱
魖
柡
橊
瓥
籨
琡
飂
W
辿
霵
黙
蒆
沶
茇
畋
臩
尳
貚
薱
祤
蛌
脧
屻
粁
糂
躨
鳐
箂
邎
墎
麐
顭
枾
嫓
瞶
锽
茡
鍣
踖
鴓
葇
爊
谼
㧬
槧
毼
靀
烸
頏
伧
箤
韈
渇
瀲
賸
菗
蟘
谂
騝
毊
炏
誊
罒
邥
丷
罥
巃
羴
歃
辠
椌
鶭
厀
卲
宍
緸
繖
𢰏
濣
牼
茝
灛
镏
錈
蒗
鳷
稆
魤
鯍
怋
凥
皘
葪
幦
榒
韥
蔧
俁
渵
陗
娈
嫯
柗
攺
彇
灒
荎
嫭
鈻
舼
椶
嫝
刏
浰
鋭
娖
蛢
珷
娫
愲
囄
鏏
禊
睸
蒈
諞
緲
珫
鲙
偲
塽
荁
犘
裑
穛
怍
喕
詑
摬
篎
鮛
荇
皾
剼
脽
铔
痖
阦
黵
鐥
螸
諬
薾
嗿
峏
觵
帾
呮
輍
噞
韴
奷
耟
逬
鴎
摦
氃
僙
牁
擭
蓪
赺
崢
鍁
藭
鱘
蓨
蝅
嘺
埪
隳
铹
槔
頕
臒
宧
獯
麚
怣
琋
偛
奝
鵸
錁
熪
鲳
衴
骖
藖
肹
蘤
箎
寔
蓻
稵
栙
擶
枛
黚
蟯
綃
靲
墖
黧
椱
廆
酔
牳
窞
搻
冫
鐀
奿
鉾
瓡
縋
泴
熂
玂
淴
汄
嚡
跂
淯
菔
涜
郥
嗌
奫
昍
娙
袐
闥
钭
茮
昋
楩
棔
墢
谹
惻
骫
摲
靉
糲
澁
瞏
餿
詨
薴
靘
嚹
斚
匂
陎
玀
轗
榪
誛
𢮎
禈
駜
峬
𢰅
霬
辋
堼
嬣
痓
媰
緾
楶
乀
瘻
雩
礃
鍔
餤
噐
碻
薃
踋
垙
圌
顣
躟
黭
拵
鼡
傇
臏
柖
欫
卨
旯
雵
鍐
藔
麃
嬀
匛
柛
雤
稤
鲗
陁
陉
俙
漈
奣
仧
傋
坅
觏
鍌
詍
絀
籩
滈
剡
嵓
溦
捊
餧
鸻
韃
肍
嘙
忕
屽
耼
氜
脜
瘺
玨
魊
癴
畕
纛
擿
熷
嶨
眚
騦
皦
旲
覥
荰
傒
勊
箟
跅
鰢
顀
铦
砃
侕
蠄
钘
煄
陱
儓
樒
庅
覣
塝
鶰
伛
孇
鲀
鴩
鹷
餼
炌
瑲
鱄
臦
遝
粰
綈
膋
睲
礚
犚
旐
溛
侙
欦
礣
昷
芰
埧
窂
𢯫
覍
鏮
鈙
鸝
癠
屒
釿
勅
朩
帏
磠
姅
瞾
屼
澯
脒
豠
瀒
鶝
乚
枖
蠑
纇
磈
騾
瑼
铷
偰
坁
哊
秳
繉
炄
瓳
檺
櫈
呩
嚩
寁
澚
勔
溆
傓
麉
缡
饄
撧
柤
搱
傔
昤
婤
癭
梾
陒
犎
鑮
勈
鐞
栐
牚
蚦
賨
銵
杶
薤
搋
歝
塧
嶍
佧
夊
鬘
汊
揬
涹
缣
讆
笭
麌
罨
樇
哾
鏔
獧
鬫
樚
諃
簴
垧
藽
牾
暩
歫
逰
鬹
旤
鐋
硓
灔
璲
斻
亃
鄿
圢
芑
椴
砇
邐
糤
慼
膎
郰
巟
谞
燲
歊
羄
殑
歗
咃
餏
㚇
譸
靃
僁
滊
饖
耎
慬
蚸
夘
癨
迓
鴣
釥
徫
馚
抻
郋
眹
轂
璄
暓
驌
簟
扞
饎
韊
礭
辀
黿
鴁
揷
弢
洰
嶟
獢
𡁵
彂
濰
婇
溚
篹
撝
頵
兦
櫺
璻
蓀
嶃
憼
谠
揤
渘
塹
攇
芘
悓
鰄
掜
耾
軴
畊
藬
棭
墏
鷡
軺
R
翵
栁
倷
裢
笌
鈳
鹻
睶
皍
讕
聥
錣
鎑
鷤
萿
渆
湀
誳
痩
漚
杅
軵
騡
韅
溗
妬
瞦
娂
帍
噧
蕋
冸
琞
魲
汧
僟
碠
躓
阨
鐰
庳
禼
缁
巓
簘
騅
𠾴
琎
筪
橨
痃
媸
薷
帓
趮
鎲
佌
炦
塠
硡
曷
餑
厍
涫
礷
贗
沩
稫
醑
紇
郬
鮐
衒
雊
魠
榐
楍
蘖
㝵
烓
馷
蓚
蠸
羼
汻
佄
蠾
罿
袻
𧢝
曪
磣
跦
苨
K
韲
鶬
仒
筫
杔
欆
倵
鈸
誔
麱
僨
瘿
攓
飠
藢
㓟
悜
椾
篈
敇
S
艊
璷
攮
霌
冦
旵
軬
槵
煡
醅
痜
庈
魺
爫
溰
彶
眊
鄈
廕
峈
殧
瀸
虳
繈
蓭
蜰
躿
匚
袕
寊
鞪
皶
穥
醳
笐
樖
洢
朸
鹠
觺
靹
鑶
郕
窱
齜
叏
緥
蹐
掋
筙
蒇
𠻹
斵
筢
顑
耣
伔
甃
怲
亖
箧
坮
齯
鳓
丮
搦
槚
鈖
硌
碮
宯
皁
璕
桴
僊
銶
獝
弞
乕
僰
翆
茢
櫪
盩
貊
嫧
傃
㱦
冖
鎴
潎
𨃩
澉
虒
邞
喴
駪
肗
峗
膙
窚
痚
匞
缞
悈
稩
朢
顢
鵭
彍
燚
抐
喞
頱
蓷
耰
稙
衺
狇
譄
蘳
癆
衜

𢯪
鮋
鎁
徱
峷
蔿
詽
庀
殬
刜
繐
鱺
籭
蠁
狴
敆
紆
孂
諌
谝
圹
妌
輰
隂
伨
榳
狯
霋
嵾
躒
翂
琟
聟
糎
垸
冩
匏
齼
膂
翍
昃
芖
蝰
岲
嚚
枂
斔
簝
勗
莍
迍
羃
鳑
棝
肂
竻
閜
漊
躈
袏
忣
芨
捪
愸
劶
縪
篋
啭
暼
嵱
葿
鼼
鋮
屾
矼
黕
篨
鉥
槂
抺
俷
眜
桍
暺
竳
𢮈
羉
鰑
朇
旪
盓
鵼
騽
旝
燽
垉
魳
釆
樜
襦
憆
愪
赿
帢
撙
傎
刐
摝
舧
蕜
㨀
栳
啛
嫼
嵉
鰃
棈
弲
靟
抶
蝘
仡
渹
嬒
鳦
麯
攖
濪
咞
屮
劗
渫
顲
艓
瞙
嬆
椥
婠
墰
糹
羳
裚
橪
跼
阩
錩
鲻
晑
隵
屝
舦
脷
熫
鮧
鎻
揯
諴
芌
疶
粯
皽
浝
噀
辵
聉
桖
毥
抍
䁓
鍯
鯒
齳
焆
螟
傏
鏌
譈
垿
嘥
逑
暀
鷮
崒
罁
祹
寽
竧
懰
蒝
襏
扏
旰
鐙
銦
铽
藫
髝
磎
渼
燅
輼
鶁
闄
嵳
釢
烞
觻
鏐
吘
紩
垅
鶶
珃
懙
揲
鎓
儨
呌
苎
泐
鐷
繯
霢
鎡
繻
旊
嵴
刉
絇
曥
淢
茪
粸
戤
飰
躠
虂
蓲
鎣
菤
齂
癐
滵
馐
瓝
傸
蛣
嵄
慍
俆
骃
鰩
蛚
岺
髟
袘
悺
螑
筀
扚
鷿
魕
謳
頢
衼
虓
觷
珵
塓
踾
鯅
籓
皥
僣
俕
髫
𢯶
椳
龴
纄
襴
胵
挕
膥
轇
榘
偡
慪
瘄
椂
譍
暲
菉
僒
鶖
瑏
袀
輇
鶐
獔
瑒
昅
腒
𠺝
頙
畧
皕
趭
鮻
劯
薞
跏
塪
崤
搇
鬖
艎
郼
憮
牿
爜
軭
殍
靆
罻
瀂
癔
葁
覵
剠
鴙
啍
欹
犔
鑐
厏
礊
銌
頾
鞿
烖
涷
僌
茥
酟
擏
饉
匶
鐖
鰮
硙
顕
囋
刌
貀
惀
蒳
垕
柾
洌
鲐
荛
漭
墁
裠
鋞
賏
蒛
坰
胹
氥
膍
睴
諍
喭
榾
悀
幇
鷃
璊
鄗
羖
佮
騬
驠
贃
狍
鴟
猑
瘣
鍟
戧
欩
箲
㨥
挆
昚
貒
縹
怴
𥊼
岏
睖
趂
臲
駤
儵
燆
鰖
垘
殐
墼
圛
鼟
嬋
莂
溩
憏
卂
濼
垇
陠
賝
滶
暵
訄
哣
鳫
舣
琂
箃
輲
蕚
搨
澺
艄
墤
塤
腵
藛
韑
湒
酏
搸
鳒
瘐
鬿
蚔
谺
㒼
梿
鰉
帇
洇
覸
晽
緂
莋
釛
挗
鏶
嶁
鴤
畇
懏
羝
罅
澸
顉
襎
忸
踗
鞎
磙
濍
詋
簼
銞
磔
聎
懮
柅
洎
瑊
澒
鸋
猃
醢
佺
儯
洑
䟜
鍳
菿
夌
煰
擑
姞
衚
鯷
跥
蔜
蚺
襻
騖
苾
陔
覯
竸
嗫
撁
抲
钕
鏉
駌
袢
劷
歶
岥
钶
齚
佲
柙
劐
逽
愵
蒷
蠚
昫
嗂
脺
蚻
櫆
瘝
扝
抳
螫
馕
凣
誐
渞
賕
臿
鬻
辶
攈
镞
礛
絙
觳
夨
綇
蕀
C
鳹
栧
飌
胣
坌
瞜
萰
眱
僡
溠
裞
捜
驂
聻
鉿
咠
遪
棐
撳
裇
嬥
𢰢
杌
爙
妦
锕
捓
釂
焅
忀
睱
霅
贂
翄
砨
稸
襛
紈
穬
媿
蚞
熭
聸
嬏
呏
曚
贔
廼
刴
譡
凴
鉇
錸
瑻
嫬
剗
韚
玕
垥
煆
魻
臋
鯸
岧
荲
橽
娍
闃
璖
痾
蜽
偪
襩
埣
崕
蹕
蟛
蝃
忾
咉
鎭
雭
鬔
歬
齘
膹
頛
靭
揦
浡
魌
酺
浿
曏
萲
慉
瀩
惒
駚
鞶
骽
詎
槦
檘
逜
摍
棼
誖
蛡
溽
讁
浥
踆
鼉
阏
膪
裩
攆
怗
斍
颾
堠
猘
畎
忇
戓
鹁
禉
縳
牐
恔
疛
慞
憒
穸
霺
暶
倻
憻
脠
顊
膄
孻
艃
蘉
赨
躱
蕼
黈
埴
檂
汦
弜
瀹
訽
伅
犜
凘
鴏
萻
栫
瑂
瀃
㖠
姏
鬽
曶
尀
戗
禨
膇
峘
秺
誾
匰
矵
殜
霴
窡
溔
膣
炑
酡
騶
馎
旣
鶸
姘
囸
賘
屳
麣
掗
裋
旑
樥
瞖
㘘
I
媭
櫎
侾
圁
袌
媄
緔
劅
坔
撾
樀
菆
跴
倃
頳
帟
鯣
矕
鋘
楢
瘨
箌
恄
牞
揔
慒
伹
訫
胉
繾
忷
鸸
婅
嫷
鷟
蜖
憈
碭
菂
袙
讜
鴜
倹
箠
萆
棁
耉
繄
皟
髢
宔
穄
鯌
軄
蹸
噑
箓
叞
訯
榠
翖
𢰯
焠
匒
糩
赟
髁
屇
諨
璆
莟
檝
簣
钆
珶
鸰
鉱
薟
籢
憽
聤
羑
雡
禞
叄
煱
晿
罆
蛒
唎
苤
筯
滛
賔
蒑
巛
龣
禭
粩
輵
卐
捬
芗
萺
灗
歨
肬
晭
浼
珢
湲
鍼
旇
𢰞
莶
軲
鿕
藣
鱝
坓
覟
鼳
撜
竛
攲
坧
覙
鲘
霩
汔
寙
儅
彞
呔
喛
倽
殪
嘄
籇
篵
绐
謢
棰
痬
苪
鑆
皪
筧
礇
蘔
濶
娝
綘
晠
繤
鐗
煣
汍
埌
剹
秠
鬁
嵑
嶌
嚆
倄
柫
哢
栿
槄
藷
劜
忨
髡
焣
㐆
戥
椔
嵹
廹
酁
菝
蘀
鼅
犐
絅
氇
猆
汈
仾
醱
晣
乭
諰
顂
馿
槉
枍
憕
嵷
矸
湴
綒
毐
縌
杻
骻
𠶧
竮
垲
睻
欅
壛
橜
雚
莮
檶
豤
檱
賥
硂
鍢
姀
銈
蟕
儱
咝
槢
忞
齰
崷
輞
幬
爮
艫
琧
鎎
枟
焄
仂
哶
砶
騔
槷
虖
羓
伲
辝
葄
玪
鍬
崸
捁
傟
鯤
幭
咴
莐
醼
瓁
唃
桕
眣
箘
艏
泭
㨕
趢
翢
灲
軪
塻
貄
鉙
碆
倇
窉
鱶
蓣
仉
娌
竫
𢯮
馑
箪
甧
嚠
躽
楃
笶
籗
睺
餰
愀
鄩
黲
鄣
櫬
孏
儹
狆
跾
逓
喓
疰
喦
抾
郳
郇
櫫
鹩
鵃
䜌
曒
蕂
蔃
吪
倅
邆
綌
頣
𢱞
嫺
汮
嫸
諼
欐
怫
徰
斢
僾
癕
驫
搈
偧
酻
幛
猣
诮
箉
朅
黡
蓧
殏
琫
鳜
夒
朤
歂
鋫
慹
𧬪
鮾
禘
渨
愙
虋
棢
琸
慂
莕
澢
摥
㨇
F
嗞
籸
罠
蘜
黳
噄
螔
兾
莣
驣
銛
澘
弝
芺
脟
赍
欈
劙
鄪
鶒
恌
臙
蒰
䟴
茆
闒
緼
呶
驙
偦
羾
啙
娗
詤
穜
蒚
熢
椝
鰇
馾
瑔
夋
龡
焲
啩
揋
踡
簀
餠
祘
礋
纙
桒
摏
摪
榡
捥
佂
笊
丵
礍
摠
尌
瞫
𢰨
饦
爥
𠾍
冔
捈
瀳
蓛
磛
蝀
嗾
湕
豗
颩
螻
烄
扜
肭
鬴
嘝
慲
阤
苉
讛
豒
梖
缍
戂
㧵
婑
泅
秲
嵅
蠆
僛
荕
蜨
莾
缬
臁
蕯
湢
滎
曽
竴
艌
窙
蜑
鍆
昖
鞆
獂
錾
閭
鑯
懪
鸒
艥
鎱
坘
鄝
鵘
娰
㨗
翜
衽
秥
柽
嶤
擈
嗀
鰣
垡
嶓
祆
秷
憟
埆
篚
頴
垱
缷
麜
邭
搾
縦
蹯
瞚
裿
鷢
醗
縥
襜
遾
聠
旒
聭
覱
崹
萪
棪
檭
凙
絈
揰
镦
姛
氁
韞
匬
鳼
杝
輏
嬻
匵
疈
迾
楟
靊
彘
誟
鵮
襇
佒
訅
涶
篘
巠
簈
篶
泖
粙
矱
捯
橦
郀
頿
叀
挮
獉
崈
欎
漎
拑
戔
灊
鸕
畵
莤
蔋
琌
筘
鮏
禡
峕
袆
卩
塏
谾
昲
鱑
摅
釮
昐
蘪
謮
枨
譒
姺
謴
偱
閽
胠
賳
靏
齞
繛
矷
邘
跈
J
侀
跐
紿
穭
歒
呹
紃
稛
雸
飇
劁
銝
嚄
𢯷
坻
翓
暠
嘊
潝
硷
珛
歭
叆
蘈
𨂾
媹
灢
𡁯
嗸
氶
箖
姸
枧
廦
袎
獘
牖
瀺
螝
彾
飴
叐
尮
冣
乫
壷
葔
烀
翈
檾
竀
磦
聼
轞
庛
搤
憷
嘠
珘
簋
喥
墚
闗
懽
懭
恎
鋽
裺
垤
硻
蟅
勫
齑
訲
畠
茓
嶑
嶛
鬉
穮
臰
酖
欂
鵛
吢
螿
阷
鯈
莬
锎
皃
嘫
劂
襱
奃
嚞
釪
仴
艒
痲
茤
圽
楬
鵞
礞
笒
戅
虿
脗
漀
寳
葲
霙
𢮇
梊
梛
喩
癍
耠
襕
捽
鐉
稓
魮
喠
鱟
蔞
贠
肎
迶
鵖
錷
晐
僯
烾
鈊
矖
逋
遦
黩
賶
髬
峿
埇
棻
塅
嶷
礰
箵
𢰌 
緟
栌
煾
刂
躰
軥
鰹
呍
琿
鰔
菰
螇
煍
鑌
毖
墄
鲞
蘬
崯
敧
灆
芟
髃
鄜
婌
鯻
霨
炗
搒
壵
鵣
婃
躹
爟
迧
隃
衟
擨
冞
麿
欇
泟
銄
琤
恑
謌
䖙
痝
亄
忂
鞓
楌
銽
壴
繸
帗
戙
鋻
唥
猰
漵
瀇
葜
鐑
釒
豖
蚲
馽
慇
慦
菻
鉬
搹
襋
崥
潂
骙
酓
霶
醆
㧾
泎
桤
蜝
徺
鄥
隢
倲
韒
嫏
皞
糑
絽
懤
H
媮
楗
詒
啀
渢
蛱
罟
穊
蓅
盫
煪
繶
葃
懀
鹺
讙
翋
挓
檒
覈
獡
葈
騼
壒
剆
呝
憡
哻
硥
娤
覉
婂
繟
崉
莼
锾
扗
鱮
滱
譳
迋
礤
脿
鐩
礹
誚
嶦
騕
殗
馘
齸
齤
齥
櫗
朓
砹
艐
腠
勄
簵
騥
厣
鲬
揳
詈
誄
聈
頥
葑
曣
糥
榑
芉
眆
坽
櫄
氳
笵
硆
噣
醷
椯
蠈
糃
綀
琄
謪
祬
铚
魽
蔴
朻
桚
靇
摼
恡
濢
蘎
廧
篛
妸
箜
柶
褨
忺
戆
𠵼
謲
醾
餹
鏙
矂
偒
娎
瓐
緫
鑓
穟
胪
氊
鍧
軠
壍
覠
秇
墬
岓
剒
晜
蘩
夵
噝
瘹
碃
帣
菥
媢
𠺘
吲
鬦
泙
竲
蕛
顡
氵
袩
縞
冡
沷
赯
燨
𢰴
喨
菞
鸃
旂
嬍
樤
垈
凎
諝
鬩
箥
焢
獆
鬑
鐧
彊
烜
聱
馠
縕
躢
燡
韉
枔
悏
櫞
徍
纞
羱
旛
嚝
諛
亷
𠼮
珕
竎
櫔
鮀
鈂
帩
硺
剶
蝝
瀍
泲
捒
尞
蒕
壣
杸
颲
塒
锶
𢰸
巆
蚄
繣
彄
帺
熮
殚
袣
曂
礐
甓
肰
魃
挱
湁
傿
挩
軂
逭
鵩
泆
惌
掊
迀
眒
諥
缦
夬
暡
膢
慆
瓙
焈
歞
孊
敪
膔
炘
芓
蛿
栵
襑
澋
鉫
檣
隥
耵
雧
谿
嘳
蝭
尪
眵
棨
垓
竨
鲃
圫
荾
悐
緗
鰝
媥
葧
帤
吀
焭
犂
聡
憁
菒
鴴
佱
蛓
謼
翝
觰
馡
暪
鞔
嬑
噿
鰏
帔
碨
薵
鋧
摷
衕
埚
闦
圔
馃
酭
鶻
晧
覑
㓤
悝
𢱕
媷
僃
轈
惍
朹
懖
彲
勹
祒
熉
嵫
肻
爓
鍖
嵸
殂
悷
釴
肔
鎜
虰
伈
輎
夰
譩
昺
梸
彀
燇
諙
泏
磸
迿
洊
獖
鍶
虦
斆
廻
貵
鑙
鉒
狜
戝
悋
駦
嚔
譿
炈
寜
涽
髞
鬰
㿭
鏭
蘣
潥
灙
鬈
噒
傉
鍎
嫴
氬
枘
唫
崐
暏
睩
黽
胘
薆
蹃
藸
戼
愢
觪
睗
卾
璫
鑖
杺
骱
挬
汃
篗
薁
攭
懥
蒍
岮
噽
驝
昸
丌
𢰆
覹
镪
纁
鎨
氄
迡
鋠
徿
痮
麧
忯
鮹
崏
疨
墶
螜
斴
鑱
蛫
麤
厱
鋋
腃
熀
廜
鵟
粅
盵
乣
髗
軐
槏
卬
燸
漨
藾
氠
钹
疠
耮
凚
呉
芔
摴
醁
弰
鈤
铫
駬
睃
橆
竤
綂
尃
𠸎
栬
撴
橩
紨
汖
姵
釚
襰
婙
隁
轊
洦
檵
艵
衋
裯
苌
缛
哫
撔
蕗
媤
勴
觟
鞖
彵
迉
虮
笩
呒
灮
鉜
獇
垺
鰅
忚
掿
栠
怉
郌
壱
藂
螄
宺
僷
惙
姽
嵃
塿
菋
絊
眻
邙
釄
笸
輷
觫
兤
嘋
擥
伂
鈷
寪
澦
郘
鮵
憣
哙
悡
峓
鮗
毤
乨
繀
揕
抙
閴
敃
蚉
嫠
儳
睳
鉭
邼
鴳
薮
蟺
啚
韙
繮
璦
蔄
爁
稌
硤
嶚
欳
𢮑
悰
儇
猯
奨
隚
孠
繙
匋
芕
脬
尐
斳
龁
堽
鹣
氍
熗
崪
岤
鮈
鑏
苢
緇
蚴
朠
阭
堌
唕
𤶸
酠
蟣
軓
趒
鬷
寋
鄆
顙
湺
墿
踒
譾
狔
哳
艚
詊
秖
𡍚
呬
岹
眅
殸
腧
鱎
婘
犑
籧
簩
秢
勯
鴒
誺
鳮
樃
颻
惤
脞
卋
睂
𠺫
𢰳
鱃
驑
圎
鰒
蒠
蓕
悃
笷
兛
蘍
虴
咰
狫
刭
鬌
榢
惪
撋
蝺
絁
弤
盷
撖
帉
礌
隒
褸
榩
攡
鼲
誷
殽
瘇
翑
蔾
焸
脨
硨
劋
蠫
羆
縃
湶
奩
劦
潓
縶
禐
鮜
帄
靪
勶
㨈
侊
榿
翏
覻
厪
踎
诌
廒
囆
脭
奞
暊
昈
泀
踂
輜
絉
埈
繷
稭
胟
茛
戨
謥
戹
犤
岆
刳
颙
韰
螖
褰
膭
朳
鵧
濩
輭
誈
筤
譓
蠺
塈
糛
碕
酎
嫰
鋛
郔
旴
坸
萈
穖
飈
捹
氘
躣
俹
莑
闁
珜
螆
酧
蚹
餬
摐
篃
秙
蟚
乛
踅
繠
宱
劒
悙
𤓓
蝢
壚
僐
霐
鴥
胻
浘
崫
釤
塖
鑠
楪
趬
鰐
偊
薉
鵨
豜
罯
賍
捵
兣
臛
睊
蹞
轖
腪
攽
璣
铌
藴
噖
怹
氋
嬔
翽
蠉
髙
狛
辧
貋
櫐
擕
檓
鞁
溣
雟
苙
愇
鄑
昛
醝
疀
倱
熇
𡁜
𢯿
觛
鲅
侅

譖
薿
侂
圠
緧
栕
烼
夿
譻
蠷
窴
刱
笢
鼩
懐
栨
噈
訞
蔛
泑
諈
籺
隩
濚
瓂
閠
詯
閰
寚
篲
蓹
郣
麆
犵
坹
乶
頶
幑
艪
嶡
乆
閶
烉
犭
糺
鲔
鞀
嶅
輴
莳
鼀
韸
昁
瘼
鬅
鐊
圲
饩
礏
筡
娾
綼
紱
阒
縿
鏇
鰜
淔
臸
遘
邚
惵
弡
綞
纕
瀎
楙
襓
捴
岻
彏
暿
韷
㓁
籥
繢
弚
萡
噰
馜
掝
砀
僝
鲎
頯
酳
梕
捚
憃
鞻
襐
魈
浛
轀
謏
阰
訷
萳
絩
垹
芵
狣
摶
諟
暾
侼
狖
遃
緌
轠
窷
禩
淎
赩
鸘
聜
楦
綣
轸
𢯎
詏
繴
鰷
禠
𢱈
驐
閗
掻
鑴
絘
皧
杪
迻
綰
跘
裬
呞
揟
挐
饟
忴
輚
磶
胮
嗗
耹
萕
躡
亓
甎
闚
瓭
蒉
斨
鎒
諐
擙
鰱
莥
鄴
霫
敜
毷
廴
璬
洚
嬨
銕
尶
纋
賿
掱
繰
嵕
鶉
懹
踤
櫂
饃
幙
蜬
歺
瀶
釕
鵺
鎝
軣
鳸
蟸
駍
囐
逯
忔
皭
倊
洅
嫢
瘽
碫
蔳
媱
騹
嗁
茋
抪
蘾
觯
枬
圉
洣
紟
屓
訆
胓
娯
尨
蕟
伡
脄
蓩
砮
矘
齗
璾
黷
揈
嘡
偄
堶
縔
斲
躷
髛
炱
鞄
砕
脎
蘦
甖
胔
鶆
橏
獛
腷
覲
趠
忼
膌
鋾
攂
慡
覼
檼
嘂
愠
瘲
搲
飑
鶃
艢
矤
鎦
𡕩
脵
鰈
褅
爝
舕
銾
柰
僜
榏
糡
飷
敠
臅
珟
麑
斀
傪
麹
覌
汓
怸
娿
趑
啿
膴
毹
潿
鮶
翇
娬
歔
髴
稾
俿
斝
胷
阌
掭
缗
磼
椓
愝
甼
猻
㕭
湐
鵽
糁
曧
遄
藄
誙
殛
塛
𢯵
X
礥
聹
矡
獪
矨
珸
攨
雱
咵
劺
蝔
鬛
毉
蘢
榎
賻
阞
鰁
痑
鶥
飧
炶
鰟
囅
佭
橾
愋
餱
鵵
埙
鉂
羛
鮉
誻
穲
鮸
牨
皠
墷
緮
瑑
駟
殀
榰
潾
鹎
樏
崮
誽
嚢
媐
鬪
啽
鱆
惾
鼨
赪
苭
燢
燪
弳
鳈
盶
窹
蛯
趩
鉲
剟
蛑
饙
鶽
淶
庥
顨
钍
掮
漧
騑
掞
澪
騋
鷰
轪
褍
簏
橛
凨
鏧
瘃
岢
螒
蕶
弉
謯
鸮
颽
葐
鄊
畈
苝
嶵
熅
珿
鶞
袊
驏
抏
斈
柍
螱
梑
愡
瑧
嚭
臐
寤
灟
謽
皢
龇
鑕
黶
豕
沯
虯
埞
豾
鰤
岣
鍦
镚
嗱
漺
踬
謋
燑
夂
苧
娡
愅
蕡
烚
腤
櫇
烐
幐
竒
輗
𠂢
懗
螬
衵
賖
醏
鑇
穉
箛
魰
碈
紥
𢱔
癈
顥
犃
𢱘
潯
驔
搫
毄
葴
艶
艉
棯
顈
愼
筈
爴
墐
攌
閮
傴
騟
毠
钄
㠯
熼
妼
仫
襸
祌
紤
驤
櫝
湬
涖
蠘
幚
𢰍
擆
檿
蓡
葙
龞
妶
芴
飤
鼏
漗
甇
颴
鬬
牸
鸜
櫖
碝
捠
𢯊
輫
靑
瞺
詿
摮
櫮
霘
糵
醊
韖
肞
囃
唣
滉
簂
橤
擽
鈏
翲
蚶
巑
蘠
鄍
髹
𢱍
稈
纡
栥
轒
櫭
耡
闅
罴
恝
矑
濞
敉
筰
媩
夤
綳
碯
壂
銇
蘺
歖
籞
贇
桝
陾
颰
澣
躦
飮
覅
陻
屴
稰
搚
恞
裉
荍
鰯
輅
椉
岰
迮
綧
㧽
秂
玝
隑
筬
眲
淠
𠿭
釬
笟
騣
眳
蘃
瞱
遀
暜
堹
膶
隫
簉
郲
醵
庨
軿
伮
蝆
鉢
狧
乵
幍
膼
偾
唿
桲
曃
豍
眤
墧
聗
牋
訍
囁
夃
赻
M
頍
竢
袑
𧘹
呡
盰
蚬
饠
纆
鲹
錞
簑
姭
滺
訑
歱
蜞
閦
滭
灈
莏
髎
籜
犙
癛
阫
鱐
睧
鍇
谖
縗
挊
悞
潫
齪
玙
嬮
嵍
逤
婡
觽
桬
錥
傐
堘
卺
菼
峆
鄛
鸙
狊
惷
慓
昞
溬
顁
秛
縻
钖
恀
橧
膱
岞
樷
祻
緽
峔
稬
鋎
僳
詾
儬
鄼
酀
萀
堛
橶
浠
襞
狪
柦
懃
唘
趥
粈
賫
溿
噫
躩
謜
鉕
椑
噛
巰
訢
櫡
狏
烢
蝍
瀌
饁
杢
踼
檋
欷
竰
櫙
檤
潃
憛
鼄
邧
潒
嗃
慗
灩
釽
锨
虌
兏
瓻
橒
庒
魟
蜧
�
謺
瀼
捔
刄
颋
爡
弽
瞐
埬
襢
姠
澙
牣
躙
烡
鷨
楴
毺
聮
羘
悾
蜔
蹎
詜
菢
嗵
壐
倗
藑
攅
龘
嫹
𡉼
鍸
啢
枓
酃
霤
瘮
堲
汿
汏
蕓
畡
旼
榥
𠱸
橕
噚
祳
嚜
婐
泋
秶
萭
掚
杍
雥
玽
憍
韤
曯
璩
葍
亼
沍
𢫨
孷
爌
猀
譨
倓
毾
嘃
餸
煢
粚
儝
峁
嶉
謘
朏
凲
漙
晈
旈
綖
瓘
嗮
虼
嶜
猊
櫀
圴
祰
埦
缲
骴
慏
捑
熥
狟
詧
醄
鹆
锷
犓
痟
煟
欝
沕
珄
鞾
浉
橰
糌
嚸
譅
彚
芚
摎
獕
櫠
劤
藼
謶
玔
醘
秗
蝵
禬
斖
鶂
蛈
墌
酼
攉
卥
孅
幋
苺
愴
宒
塟
豦
豯
濭
塇
嵡
赼
庱
鯾
劥
臇
绺
垔
葓
絗
蒭
鄕
哷
秚
蛺
哅
懄
憢
曨
嵈
跲
絯
燖
笰
諚
鵿
僿
秄
懞
謤
俔
囘
釠
羇
鋕
憱
凃
緜
犽
仢
犪
圮
粃
㞗
哖
抔
皅
譱
澴
猱
傆
蒄
徶
蝓
槙
縐
苿
蠳
儞
浶
铯
釨
昗
弨
姮
脪
衃
夡
𤆣
厐
燓
杮
掦
釙
鳚
龖
幱
檠
垌
韏
瞲
倸
轺
妑
逖
俴
貍
謚
笅
畤
腄
惁
眓
庲
鄄
黆
騿
姟
褌
嬧
汅
慸
鹓
蚾
恦
狑
穨
燗
痐
鰵
噕
鎙
剙
蹌
鰽
揗
忈
揨
朶
晹
蝮
輑
炠
媑
昩
𢰋
亱
騱
砋
轓
軗
雔
犆
瓠
蘨
鶦
箳
頇
鸇
忰
E
畗
餂
颸
逹
諶
秼
鐚
𢱋
禫
曕
鷸
湷
荹
龥
滧
炆
鈠
糽
鷻
鄮
捦
嶩
𠂔
鱞
甿
誂
綆
搧
盠
浍
躂
鄃
貐
饊
轑
幠
眄
薗
罬
榓
栊
姃
翙
槆
栜
釖
澞
矊
崞
皲
腀
蟶
罜
鄁
牉
鍚
氒
倯
丩
朖
蛗
瑷
嬊
鬳
皉
莇
鹪
𩬎
覡
薕
苸
畁
牂
怳
鳎
芅
緍
婩
紪
齝
樐
孶
綕
佉
逨
荜
呠
朷
閇
玸
訡
𢮝
蓰
皻
钫
蕑
鶼
耭
蟰
濇
稄
堄
碜
臖
軇
娽
皤
詌
熦
緱
燳
烱
暤
咥
鷔
礔
慖
罣
隝
扴
栺
豨
醿
洳
鐻
褕
糨
哚
閳
巜
戯
鲒
仸
虭
泘
駣
樦
鴋
芏
煈
餢
哰
蟜
騒
翥
膖
谻
樴
獿
鳊
禲
遻
鴊
鯓
蔰
檴
峛
覶
鶏
溙
劖
忊
誝
簐
饐
嚂
蒶
涋
釳
薌
渿
魀
噲
鋂
袧
圚
椐
矴
篫
鹱
颣
棎
淉
翛
蝚
朂
昿
縠
諵
鯮
樍
粦
穠
舃
蝷
謇
猌
蝬
郙
欏
侓
崾
黋
浈
嵙
灹
巤
熸
怛
涭
耖
讑
侞
朒
珴
哿
蒴
葮
鐫
饧
渰
隺
袛
诒
眃
瑳
辢
阋
醽
椆
塉
艅
暒
噯
嚁
抩
廇
鲴
鏆
妵
狲
砏
謣
賟
椺
栤
霱
蟔
刦
虙
灕
麔
柋
誵
瓑
詉
榊
蓗
鎘
俥
駢
鏾
裒
灥
絪
罇
讅
瘊
綝
莗
聇
毿
腘
琯
尢
鈿
襀
昪
羒
諯
燘
翞
佪
觌
隄
籱
哞
耏
撡
傰
懧
秡
汱
愳
沜
閛
莯
狺
蕆
凢
絒
簚
姕
饂
幝
睯
亰
灚
瓈
觓
癏
薫
餜
賧
镧
鞛
梮
棑
睘
峟
奤
銰
蟂
冿
祧
糢
嵿
冋
趧
玬
灺
莝
屭
禸
韛
裐
焴
瀣
蟼
戫
虠
𢰺
鍡
澟
鶄
籾
摚
訮
檹
懫
澩
觨
洯
匫
餥
赮
儰
沲
醲
傺
蛨
菄
箿
皐
筞
謟
椤
茳
鰆
憝
縑
纊
枡
蛂
鱍
橚
欶
哃
鵯
柸
棦
悳
蕞
鈗
婝
慀
亊
絚
霥
哯
骘
蠝
晘
醤
浵
硿
肊
掆
𢭃
皯
垑
蛥
轛
垻
踁
茟
庑
趯
枃
驦
龤
崺
噡
貆
圇
鱅
肙
𢃇
偤
鞩
槼
昒
肣
𢮋
螵
臎
譗
俉
儃
廔
伻
鷾
牔
閵
謖
糔
頀
蚷
薢
嬇
刞
嬡
粡
鐅
轋
噾
犨
戜
旫
奊
隌
擌
硩
絧
峣
踽
狿
苩
掤
箺
駘
礠
咶
芢
忋
㕸
骪
楯
倐
蝏
霕
貣
猳
鱴
訋
渄
萏
趹
銧
癩
筂
贁
蹠
筅
椚
綮
鏎
泍
弙
翬
蹜
羋
祊
欉
欥
祩
尥
蘟
嵰
岦
頬
煭
裌
鋉
峲
苽
绖
鎄
昡
辬
燀
孴
棡
漃
裲
氻
棤
鴚
詁
瓟
裥
钸
啗
蕖
𢮜
笤
殰
蛦
荵
碡
鱯
侎
蛲
倨
廮
搌
擛
晱
炪
賵
朆
囜
硞
菶
槒
鱵
殈
峎
劀
灄
藘
勍
翯
譊
蠐
堥
枎
嚘
膲
畃
倣
灓
菚
潖
萷
珌
釶
嬖
枮
頞
掓
亠
糴
廩
劸
橃
镼
揿
硄
磿
糪
趞
餋
鷴
墕
呅
囈
槪
菎
塆
箼
筻
鍈
勰
黐
飅
髄
匉
陯
鱧
鑚
瞤
珤
鰞
椲
譵
馪
峑
窆
巇
儽
唋
燐
鱢
蕧
塎
梘
觧
瓉
滆
讍
珡
丅
䉭
溞
腜
蔯
嫫
弍
瘚
梤
搊
礗
爧
祼
鯡
錟
馢
葕
陑
頮
琽
𢯩
鰧
濐
邟
涃
橷
譭
禂
砅
魉
蕇
雈
騫
犇
郹
鞴
漰
鯋
抧
珨
魨
煬
庺
駮
疐
汌
諕
矧
睟
凓
蘞
膗
囶
邠
掅
蚗
簺
怶
抆
糷
蓈
夼
砫
芁
铻
鞇
霦
鸹
蝹
莭
鬎
褎
棞
戁
鬶
疎
鯄
軯
钇
柕
郆
醻
劌
磀
窲
筳
棩
椄
鶠
鎿
繱
蓱
甋
坖
癰
帎
桰
佡
摱
鉊
鷇
裵
潀
妱
籋
岜
闙
𣲷
吰
踲
筥
畾
栛
拫
縧
瀁
硾
髥
杗
欵
猒
屨
濊
欰
樬
胗
梜
詝
藙
飻
簮
鴱
甤
憀
鵅
冄
嚈
蹏
罍
櫑
鄷
脼
挋
峮
襘
殻
銸
蛩
蹪
徭
昳
縀
搯
齬
橁
厃
涑
廱
餽
肼
匤
鬊
呥
悊
殾
粋
沺
粖
妭
兕
鶪
咷
辔
疢
黊
嚵
螤
貗
诹
蹖
嚒
萓
鰬
邫
畯
溡
寲
蛃
昝
礀
婎
潹
辴
愱
琱
陼
庢
勣
朚
蝋
鱚
澕
俌
螋
呙
頝
鷎
罧
噂
攋
騇
輢
鼯
賷
厊
獚
摜
鮟
藆
镝
硊
玹
髭
壡
厹
誴
昻
碢
隖
杕
洭
酨
厒
姄
飿
牜
娚
墺
尜
媜
芆
冧
顦
潪
朾
饔
磂
鄦
飭
鈘
遡
磩
憦
獓
燩
龃
猽
畼
氼
皌
鶷
黢
襵
僦
瘯
剺
鶡
玾
孡
啺
琁
鸆
崜
廸
玧
鮚
𢰝
蒱
縎
晸
蓢
洓
唢
詥
揵
峅
尗
菑
唭
骺
爉
紾
沆
醙
鋶
盺
馰
淛
祲
郃
嵒
隞
佽
騊
粻
憞
杲
匲
虆
刋
鵐
笉
忥
晫
戄
怑
霚
翴
魾
閧
栂
榣
檃
裼
髣
幓
峧
胏
蔆
譞
燯
瑹
橉
蕫
杽
菾
枿
嫶
犝
萗
鱣
桼
潚
鮍
鉏
棆
籵
蝿
楤
漽
憳
耜
鯬
傝
襳
蹍
侉
襙
阢
凧
颹
蜛
鷖
蠪
顋
蕢
蒤
騧
丳
鷆
妷
懕
燏
垼
鐾
髠
滫
笄
禯
姈
瓿
枊
樶
楻
荅
鎃
琷
窔
紁
踄
霝
厾
蠋
弎
鏵
汬
趓
漋
镥
硽
蔍
锍
錰
謻
亶
郍
櫹
㗾
筌
蜼
貥
篺
怿
聐
鍻
羶
泜
衎
粓
讉
墵
膆
嫈
蛞
鐯
麷
譋
譌
畺
縯
頲
鎛
樔
灷
圥
鸊
鴰
峜
攠
勱
寯
璢
悕
韢
苲
鱙
繥
嚙
臹
姢
齃
裖
珰
菨
匧
礒
轣
稶
麳
廎
傊
鷶
莩
俀
詻
鑸
絭
扤
漑
俰
敂
銫
韍
欀
璵
芛
爖
蕍
麀
剾
烰
橿
矋
籦
囏
鴅
蹝
鵳
螹
垨
褯
慅
臢
筄
綹
訾
屚
琚
挅
諓
敻
侁
鶜
篬
糒
蘙
莡
笍
唺
膐
淝
幩
髼
趌
鉡
鸶
黱
蜹
籶
梹
憇
螏
畒
㨏
黦
拕
镅
帻
渮
傫
蠭
桮
绋
駥
擪
彜
篰
曗
鑝
剚
凒
鏋
櫋
囨
袳
巄
镡
藨
曡
踻
佊
曑
郄
㨎
菬
鷑
袦
庣
鵉
黹
謒
歰
皼
迵
鲋
嵮
䭰
俽
敶
㨅
瘌
驈
咾
檷
伾
媏
溲
剻
鑵
穪
鯔
灃
磽
桾
皔
翫
龷
粊
踙
蹔
蕐
鐴
坆
雼
唂
骓
瑭
鸍
讣
罸
蔌
褋
壜
妽
骵
騭
寍
𠵿
䤚
訃
鍠
緐
嬈
溤
暬
鄐
娷
劓
熶
憓
恉
掫
鐭
挒
袚
曩
檙
摭
岵
槸
讖
鵓
鄎
鼤
悆
灴
蒬
歟
鼂
馵
鶺
韫
鋄
柇
嫛
斁
淧
耛
欚
衦
疻
毻
舭
邖
輘
圗
㲋
鞟
嵦
垟
薥
伄
猔
鏅
醕
剢
埏
矪
璈
魵
肜
餷
薍
罺
摙
髆
噃
錛
苳
鱇
墈
鉖
涊
閕
傌
躞
濲
啎
鴵
靱
洨
齀
齾
嵨
啨
僗
跢
沑
蚍
斣
銉
餙
杄
礟
蕹
隇
靸
僇
笇
彛
蚡
蛉
櫼
嵭
隦
焌
勭
㗆
馞
癎
陘
婫
蓫
捃
秪
勀
罉
俈
斺
柌
伜
輦
梎
懔
鵏
龹
笻
懨
蜭
𢯼
灧
飏
𠜱
痁
鏕
𢰲
緿
倈
杋
諠
梂
漅
鳡
榤
崬
髇
猨
摉
覢
踭
屛
蟞
霪
憥
鐶
柈
餫
趿
僄
珹
詘
槀
屃
禕
諹
獽
瞯
嚳
栦
裦
檫
栲
嬺
皹
胐
懯
幰
坲
𢮍
珆
鋌
髀
笣
扺
腗
霮
狵
旡
鱓
梍
爏
勠
偙
嚿
蔖
淏
麨
詶
麲
侫
尫
灠
怰
闋
頊
哹
釱
晍
蜾
匑
揁
湆
鷥
衸
猺
俖
蕒
憙
洴
倢
盽
迆
亍
僤
髧
鎞
跗
揘
洷
陊
麛
鋡
洖
軎
脮
榀
岶
躔
琙
贶
騪
蘐
囌
喖
鯀
鹲
O
輙
舑
愦
鞹
茩
仵
懬
耓
郂
閞
霷
腅
蟮
歅
鄓
𢆡
铖
浺
蠿
旽
钷
緦
捫
宭
肕
緷
錊
敤
靺
踠
顚
崟
艕
塕
鋦
㥯
畄
扠
㨊
辎
曊
艼
聝
縺
黼
盭
鮩
惽
饣
傞
湽
觖
沚
摌
囀
垝
婯
蘂
覰
蜋
碅
珧
謷
騃
潲
蒺
苖
鶙
凕
肑
嗼
韝
臶
偗
讃
嬙
鴶
埻
胬
埥
鼇
惖
鋿
翾
壧
煏
矞
愹
郿
乷
屧
僎
縆
髜
噇
偖
傂
漝
狓
皝
顮
澭
鯕
萫
鐡
妋
淐
鲿
緃
褑
蚳
呿
廯
栴
𤘅
苬
蚏
揜
墣
潄
玒
礈
垾
簤
飹
堋
玱
僪
厗
瘕
廋
磓
甞
蛍
逫
蔊
鷳
嘦
盬
揑
嬩
悛
熑
贆
猋
痷
磖
霯
恴
圡
叅
鶵
穾
粺
痆
姲
稊
餍
齮
聀
鹨
爣
杫
釟
泬
晻
濈
𢳆
叜
鈬
蚼
姰
柼
藧
嚻
嬐
榸
蠏
跶
婍
魡
儭
劬
柺
覩
鏁
簎
眑
偝
瑵
鯴
梇
鋣
瑐
嶫
鞌
耺
粍
勩
閍
彺
榬
啂
嘨
鬡
嵤
謰
袴
瞮
儤
盍
譺
譂
瘜
餩
暆
峾
禝
兝
怘
悁
阬
婄
鋷
軨
鋟
挶
僽
蕠
濨
敔
嵣
驧
輱
蹚
蚑
歑
巹
軤
蒽
綯
驩
紖
臵
毣
賰
仈
暷
伋
愭
穓
璝
碖
暞
洝
檁
傧
縸
扲
魝
錙
梬
蝂
帬
犻
鸎
唊
蘄
浗
犿
腡
鉪
跒
燠
詄
穅
瑎
猅
糓
槮
蛕
懘
籯
鱒
盻
蝫
硹
缒
驖
楀
敄
謈
杬
楄
偩
蚈
籒
跕
崄
燛
丯
釔
剓
弫
儍
梀
碙
懻
宑
剞
禤
蟟
闼
藎
慙
颎
蹘
钅
纚
鎷
鍞
盇
餣
烣
澇
啣
烲
嘇
鵶
擹
讔
塦
螛
峉
臈
䨩
頽
譪
籷
鲂
繜
塸
鬀
餳
铏
寣
煕
祦
跰
犗
籀
楎
騺
鼽
禆
稨
貃
骾
僔
窌
𢰡
躳
眥
欮
蕰
鬋
酘
鐽
紬
卭
锓
禟
癙
蔮
蔹
钁
砱
鞼
皏
蟽
嬂
鬭
翪
闛
烔
曱
沨
薋
圙
咢
俼
窋
瞘
匘
鱳
笁
尠
艤
濋
痸
橈
鋳
緡
閷
炰
劢
逄
搼
笪
僢
瀻
晼
牷
赉
曅
肈
煚
譣
妉
嶐
鲌
皵
梽
鳠
鈒
荙
瓞
冱
珳
傱
匊
嗻
窫
靅
剫
笾
侔
楕
訤
㨉
妧
㨓
偓
綍
勲
笡
弇
惞
漻
躧
橣
夓
恈
奻
蘓
驉
坕
偀
烿
炐
皫
祑
聏
鬒
釩
褼
惓
蓐
泚
鮿
惢
篳
贑
臤
痽
韂
𢱃
戩
鐓
榺
鱌
篅
潽
勪
㨒
蛷
箞
腣
檍
熚
溋
躤
陧
篦
晥
臱
繬
𢮓
瀠
鍜
镠
仠
賉
粠
鍀
讝
䐙
䈫
骩
暔
踺
璛
蟍
髕
愖
抸
祴
撀
鲕
俶
溸
巌
沄
萮
棙
櫢
鄋
躝
錋
嫿
赥
頧
泇
姎
腏
赕
瑫
厔
暥
寴
貛
漇
稝
掑
狢
瘑
蟢
緅
冐
厴
粔
駈
鳀
闈
爨
鞈
岒
峢
罳
𢱚
媆
秫
鴸
輈
湔
蠩
兗
牃
埑
欿
疜
竂
鉽
檕
膞
紑
奵
痀
鉧
蜉
襒
鑭
罊
鬵
骀
砠
梣
箾
鈐
礽
噮
𢰽
腯
淂
𢱐
絷
騄
璔
橝
侱
廫
騯
祮
揺
襺
疕
挍
嬼
灪
鏸
傹
櫣
孲
谽
澂
徏
螙
陖
愾
慻
綟
擗
餝
姖
弻
穐
鎪
窳
菦
噋
曛
揤
垶
弌
剸
鲣
鈮
啇
穔
朿
騩
餔
埲
祔
諆
鮳
嚯
睎
焫
閯
聧
奅
娪
炝
椈
谸
㧹
捳
軆
柉
磵
鰸
疦
蝳
壸
媡
鐱
戇
薜
襧
憭
鐛
佹
饘
繘
Y
錗
滜
銆
罤
跧
犫
苃
楱
倁
鬄
燌
僩
瓽
緎
瞕
蓯
洉
盢
洏
閙
抭
恛
巙
鯪
羷
唖
鋗
惎
竼
簻
磆
痏
鷽
傕
豂
籴
弶
熝
狾
釈
擖
鯯
𢮁
嵂
蜫
睠
鈶
獮
頖
彣
褱
銂
埰
榇
縉
砳
漷
黌
酽
垎
畭
蠇
踰
覎
醹
堗
濦
昢
洡
茦
韼
牘
鲾
祋
黣
晙
匷
𥋇
沞
霠
瓔
壋
眬
祶
朁
婸
熋
譥
琕
踘
雠
瘬
斄
珔
竉
惄
崼
糐
鸈
媺
跱
丱
眿
𧥺
鐟
瓛
蚟
郖
鮒
蝒
砡
蟿
炵
衻
婨
矅
鸉
衭
熰
纻
踔
镒
嵝
蒖
慔
絏
鎵
緪
臫
醶
邔
輬
馛
臕
坱
癹
磴
玚
舲
馼
輣
鋺
肒
圬
眴
鯢
颭
褊
滹
蔦
獟
捀
鋇
躸
囥
秈
骿
瘆
歀
媣
鱖
昮
覕
猄
鰨
匎
酇
祱
嵁
鏑
廪
踍
籄
蟙
婼
倀
䇱
梞
鶕
箅
簖
菍
隀
鱏
齄
悘
涰
蓳
𢮒
忝
陙
囮
鮂
箨
髍
褽
徥
梠
睰
惈
硎
嚽
舋
獬
痥
撺
栘
鷣
缯
瀡
劻
噟
鵾
袷
颏
哝
瀊
吺
胑
儚
齏
暣
噷
覿
坒
麊
𧊅
浞
闿
幗
錉
揫
垐
礲
蘅
嵎
窭
逘
囩
堩
顝
踀
貜
髺
嗺
闳
潐
湼
齇
侺
迣
襹
謩
婖
愻
韹
镱
廄
岟
踥
傗
橖
圊
癁
硱
淗
瑢
蒎
嶊
梪
櫕
茺
囻
薒
刼
踯
躚
窾
蠯
焃
牎
軷
縟
疘
櫁
魑
𢰦
唈
愞
揞
衂
讘
舝
鐿
蔪
艜
睋
忩
朘
緈
镤
齽
祅
甍
嶱
蹅
憿
襉
蒣
蜎
堬
曮
簨
嵺
瞝
㨐
烋
癟
脦
騆
寀
袟
搘
嘒
烗
觢
溈
揙
婾
鼺
藈
𢱙
撎
榯
壻
弖
刧
鋈
猞
緁
燤
鬠
咑
阃
簆
祏
豅
諽
牥
犟
貦
筣
仐
唽
蛁
埽
鴔
壖
蟫
鮁
勬
垬
臞
矟
仭
厰
憉
蚅
淈
纩
跿
熜
褀
踦
蹀
鲯
菳
砦
魱
鰠
侇
𥹉
掾
矙
巚
喼
弆
坭
擓
猭
硭
裍
銍
頩
G
踿
𢺳
艟
眝
豻
袗
硖
鶚
蝣
齨
齅
竵
胅
蒒
梐
縜
蝽
忓
猓
頔
趛
徛
铙
獜
騀
炟
錏
鍉
祓
覒
腲
焇
鵍
鞞
萣
瓍
蒁
瀜
麏
茖
劽
襖
瀯
鑉
磻
狘
逇
耧
簜
畛
茞
跀
獋
賎
嶕
籔
礨
膡
鞝
櫩
腁
袨
蚠
繿
淰
晎
傼
躎
罏
麫
銙
趪
襝
岽
𠼱
珁
痵
嵠
謅
夳
勆
嫆
祙
褹
鷘
貏
儫
攟
隭
鲽
虘
蚚
焤
瀖
逎
梙
弣
鋃
鏊
璼
慁
鞥
糋
佀
偮
捖
儶
殩
岎
螲
釃
鶗
柃
疿
叿
鷉
椙
燝
鷦
禚
厇
筮
汯
禳
魐
庂
紣
阍
蚖
赜
鬝
蠦
凔
唵
汥
螉
娹
灉
雘
搢
趲
簒
鵊
躭
碏
藳
槑
蕄
璗
磳
螈
輊
蠮
韣
咊
隷
鈆
紎
D
泺
緺
櫧
綋
謡
埓
橺
倕
殄
蔏
淥
霼
鷞
蝖
癤
紏
恠
巯
嬎
婰
閬
渶
惸
偁
茰
檞
虵
嬝
籣
鈱
玭
髿
巎
峹
篽
輐
暦
桭
擣
儌
鼞
鑳
簥
妀
貙
敁
迠
鰴
洠
蘘
褩
褠
鼣
鉘
恲
葰
赙
樈
搛
爼
铓
瓕
皬
撆
飶
鰕
劄
衈
掹
撪
顇
玵
飀
䨣
垏
撄
涾
炤
埐
癃
𠴕
嫇
珎
娭
醂
膓
瀽
濴
絎
穋
恘
霛
牤
濷
祡
魓
蟊
媎
譝
辡
粛
痎
烎
尦
嶞
霂
巶
琘
锿
蚇
鞮
銋
稘
溻
瑖
妚
獈
鉃
瀥
鯶
仹
蚒
藁
玴
曌
㨆
糄
苊
垷
偍
觕
憄
稑
賒
坃
呺
讟
岄
鰳
妜
顗
崳
㨘
湂
嫙
腬
鑻
嗠
衁
挳
攑
姇
臗
獱
崡
璯
紵
饫
瘗
镺
嫤
筁
纥
胢
褈
腶
攱
窢
靨
抁
傛
秵
嶮
銲
珝
儐
翺
鞕
諎
豶
紕
溒
頎
虈
芿
鷀
茕
鈈
攄
浽
鼕
鍪
歽
潗
豘
夝
鑃
鎋
巊
𡁶
屟
垀
埝
堐
瞊
筩
稃
虉
飸
匓
靋
蚥
鬇
杛
巺
奙
媙
猁
羵
鋹
猉
嬘
踓
酆
餯
婛
籰
邿
靵
蔈
朄
鞷
刲
嫒
憠
妢
綨
唴
鶊
躗
湰
吙
鑁
灱
颬
曞
拞
媵
扽
虷
矌
敮
橑
檆
黥
𢰭
娮
暽
鼪
澿
鐒
娔
胊
閟
鈑
獍
嘑
撨
唙
樧
嵖
汜
帴
浧
尭
镾
噊
癯
檥
訠
苘
懩
鈚
惗
魬
稧
𢞵
鍏
褮
褃
犾
𢰙
釓
姼
雫
峞
嬕
堈
嗩
臚
閂
妐
昜
曭
瞸
虁
鐕
袽
頟
嫽
詇
浐
郞
噅
椘
鮬
糿
圀
躄
禖
蝥
堻
勮
磧
挿
摫
嫨
麕
蜦
稒
敓
麡
鉰
掍
蹳
渱
覾
衯
悗
閪
焋
褖
甑
璚
懌
鉦
㨑
禢
虨
湇
聩
剕
媪
瘶
瀢
琗
桋
鉋
訹
襂
圂
縰
胙
坩
娀
谮
肀
繵
椷
曺
狌
擳
潕
軙
贒
鄻
貲
讎
鉈
秓
鑋
騸
勎
衇
紴
霒
踚
誜
彯
欓
撉
雺
硇
儙
尓
硰
獙
藞
檦
鍓
碲
漴
洆
鯙
屦
疌
諂
幯
竝
腚
鍫
俜
氚
鮼
塶
埀
矻
楘
𢱏
墦
褙
鷝
礯
櫟
攧
奒
瘎
醟
偋
虩
桟
鯟
虪
塥
荱
檏
顬
藟
絺
蝱
溷
挵
炲
穏
稢
浂
亹
搮
鉝
焀
豀
髉
葽
𨆪
渂
頨
濉
戽
榹
闑
獏
鍃
埛
𤷈
趔
隮
飃
竩
跙
憺
靬
嚾
宼
溇
魫
鞜
畂
糼
埩
蘗
舩
噏
𨶙
焑
闟
墲
帠
蜙
楑
礝
媖
醩
讦
竌
惃
悒
裀
铊
詴
燬
篯
葂
覞
枵
漄
蹗
尰
薳
樉
珬
嫕
鷯
牬
輌
僶
鮠
叴
貖
晊
蓴
枻
奀
嫎
淊
媇
鶛
灂
誗
晡
窊
詚
岕
羍
鹾
讄
愌
桺
皣
媔
錀
璡
漛
楋
捗
熈
簹
柧
礆
糫
婟
湤
炥
棇
缐
尅
嚺
戞
鼁
齻
𤊓
堎
眧
茌
覮
蛜
篥
鄚
鉆
焏
綄
筃
灀
蒌
鶟
寏
莜
甮
砙
欛
粨
敺
篸
摣
鞧
馊
焂
鉮
鏴
愨
跇
貤
諤
姳
闩
艭
攩
蝪
鯥
鋩
颮
扌
鷙
簞
煺
壀
鐝
捿
蠙
驇
瀓
樅
癚
蔕
樿
伌
厈
煘
廙
聛
皗
錒
焞
巘
鯵
惲
絣
潣
樗
臑
郾
𢫏
礕
暍
鉟
鉎
嚪
鼘
娢
斮
鳾
磒
熘
箶
簙
攕
痗
颃
魋
坼
𢱓
偭
廽
瞢
穱
苼
嬲
砎
掕
踨
鸔
芼
埫
芤
𢶤
猲
拺
誩
缊
郯
嶠
謓
珓
醦
鼑
罈
娨
鴐
鮔
铼
礿
墱
翸
虺
餆
譢
拲
侒
桇
瀈
鲡
槬
鮥
灎
脡
暋
滏
狤
痭
怇
垁
誒
嫀
鞸
駎
黁
嵗
璏
怢
鉍
剮
庪
煠
撣
隲
枆
儧
阗
蛘
豧
敩
揠
毧
帋
涀
軰
儺
繑
寑
烑
趗
秨
氿
瞡
颥
匴
拏
仱
齆
鵔
齓
丄
媋
爿
斕
鷁
疴
稉
慃
蕅
矀
眖
錃
忬
㔾
綉
苚
轜
倛
謦
潁
琈
丒
桱
襼
镊
笜
斊
徖
颷
鈁
秏
鹮
鯧
笘
檰
騢
瘞
粬
飬
諢
捘
缶
螠
螷
姾
誧
豙
鞡
攃
珗
粴
牱
恧
筸
荬
欻
粜
駋
洐
慭
釞
釹
籚
蕵
摢
秕
鸏
觿
僉
霃
觚
敨
螓
諊
揥
鮺
胕
泈
湅
貁
怬
蒘
榞
窅
壈
韇
籉
齉
藰
毦
睚
鉹
軏
蛸
跁
圯
溵
魒
覴
陥
榙
犱
鎠
軑
梫
傜
岪
闝
砊
皀
錡
鏦
愊
笀
螗
輀
鎩
铑
鯭
揱
喍
騐
呄
芇
𠃊
欋
廐
韾
蒾
B
鼶
腇
虤
薂
琣
壼
痄
鯁
踑
蓌
啅
嶖
鮎
鷚
遯
蓥
馶
涘
蝐
鱁
蟥
跊
镈
汑
蟴
愓
墴
黫
釯
幧
訙
跜
齫
疬
鰛
暁
咅
咇
麬
遈
訰
胇
錖
鎐
䛿
譆
哠
蜳
茙
抦
泿
坄
奰
贜
痡
鵂
鋓
鮊
臠
耴
鹚
咮
铗
韪
錓
馺
黤
溾
楥
鋱
鉩
锳
𠄌
甈
皒
妰
祃
倝
蓊
葻
噥
玘
瑦
洃
璂
鶣
鮯
衏
鈃
埅
菧
幨
焪
猼
艡
紼
歠
宄
癳
脝
緛
罼
枲
鏨
𢱒
趝
沊
濿
鐨
蛄
懜
𡃁
峌
銣
禃
厡
墂
偯
幷
餭
崋
鹶
乹
𦢓
醨
穕
蔝
貱
蹾
疓
苶
詗
鋊
朜
曁
儸
躐
璑
榦
焍
踃
